BEAD5727
3EE8F559
BE14D9BB
3CFF74AA
BE7FD145
3E8BFCCB
BE0D3AD0
BE38BB50
BE875426
3DD95307
BCDB48CC
3DF0A89F
BE36E0E8
BED5831F
BA732424
BE83DB14
BBC51823
BE80626F
3EC1D325
BE926AAB
3E9FA9A5
BE488025
BE8958BF
3E7ED858
BEBBF1BD
3E447BBB
BEAE72FB
3E2BD366
BE04E415
3E84AE44
3E6CFC6C
3D98726E
3C9D2001
BE0F3AF9
3DE17EEE
BEE9E6A2
BDD9EE1F
BD110114
BCCC63BC
3DBE5607
3DC7D962
BD61A96B
BE08A4AC
3EECD6E5
3EF6CEBC
3EA268F0
BE3F8C72
3DFADC1B
3D4A4518
BD70C4CC
BE9BEBE6
3E8AB3F0
3C8DEF11
BE989252
BE90C32E
BE8819AF
3CC21437
BE22F9FC
3DEF155B
3E4E128C
BDF9DD03
BE1C2672
3E3C8FA6
3E7508CA
3CF73348
BECB22B9
3AAAC05D
BEDCC4C2
3B8F8B8E
BE0DADFF
3E4045F0
3EE2F63E
3ECD7AA2
BEA211E9
3E9D07EA
3E1D1B2D
3E77D442
3F02AC52
3E999880
BE8411D5
BEA399F7
BE391B80
BE2DD6A2
3D24CDDB
BDEA4C14
BC429CFE
3E9AC5D3
BE457199
3E4F0213
BCDE9826
3E5730FC
3CB33023
3F1A53B5
3E04340E
BE976705
BEAEAB1F
3D735494
3D9C39DD
BE16EDEE
3E0CC2DE
BD21F7C2
BE4EA7F8
3E1BEAA9
BEC3D461
BD9FB606
BD0278F1
3D3D8D54
BDD2E947
BED99E1F
BE82FD1C
3EDF4A3C
BF06C961
3D6ABA8C
BDA758D1
3E09470E
BE687BEE
BD880482
3DBC9BC7
3F058BF7
BE60C476
BE4A87D2
3D358DFC
BEEB6B6D
BDAA139A
3D95ACEC
BDBF78C7
BE241177
BE005142
BE31C88D
3E2B42C2
BC281411
BDCDBA47
3DB06538
BDF1A874
3E0A144A
3E3F9BF9
3EED3654
BD84FC11
3E0E72B2
BE1D0A40
3E6E18B3
3E488509
BE5389EA
BE974F35
BE9FFBC5
BE08B312
3DA2A27A
BE73741B
BD48F93E
BD31C4D1
3D0A08F3
BE449CB6
3DAE8EA0
BCF0FE45
3D824C71
3E7EB9C6
3DD299AE
3EAE5C6B
BE871D5A
BE9C2F5E
3E24477F
BC807AE5
BDA9490C
BE266CF5
BE26F6D7
BE4E09D0
3E4F1876
BE274D55
3AFF39DC
3D28D843
BE066280
3E6D973E
BE604197
BEAF30C2
3E552C58
BD8FDEC1
3CF8D20E
3C30F5D7
BD599321
BCDCAA10
3D46264A
BD8C323B
3E681B7E
3DF70544
BC9885D8
3D9D1CAC
BE621A95
BD12E35A
3E660679
3CB7AC8F
BE171DFF
BDE18ACE
3ABED3E6
3E53E656
BE877CC8
3EFF65C2
3D31A35E
BEA9B245
3E538E0F
3D56D74D
BC6AE490
BE33891A
BD020673
3ECB00B5
BD3826B3
3E8C27F5
BDE77A40
3E7EA5B9
BE8F5F71
3D6A0446
3CD8645B
BEE7794F
3E5D3A23
BE3E0339
3D5F90A7
3E2E1BF8
BF084DDC
3E253D9E
3F0082CB
BE90C2A5
3DA4E942
3E50BB5E
3E66ACE1
BE67D256
BE017118
BE9319E2
3EA45C3C
BE941857
BE99835C
BEE69B02
BB3BFA98
BEDAB4C9
BE0FC54F
3EBB634E
BD8AD5B8
3E9066B6
BC5C44C5
3CC4ED2F
3EAA0646
BC80DD0A
3E978B97
BE617A4F
BEB86F21
BDAFAE91
BDBE1B40
3E8F0ECD
3D4C0B7F
BB8CF485
BE01FA45
BE053ECA
3DA7040C
BE27805A
3E420AB2
BE2A8B84
BDE033A7
BE889BD4
3E3EA9F5
BEB10A06
3D17E0D7
3E58D70C
3E3679E7
3DA7EAAB
BE0D131B
3E767DD8
3D5ADAC5
BE1E452E
BC7BF646
BE4C3448
BDCE61BB
3D53679C
BE8F5E55
3D9AF463
BD2FBF35
BE0E2356
BEBBF328
3D859A23
3E02B907
3D1E53DE
3DF35DF7
BD30C8D5
3E30F809
BDB463E9
3E8B1B82
BD164AED
3E03CAB3
BE5D7944
3D86CDED
BD8C96DF
BE3388CC
BDB15F99
3C2B468A
3E9F9D9E
3DECDE89
BE850433
BAF13790
BEBFEFDD
BCDFD182
3E062C6F
BE811AFD
BEC71B8D
BE1622C3
BD0788CB
3CEFB10D
BD14AF6D
BDEB18F2
BEA2E313
BAF451CC
BE6E4295
3D966FC0
3E8B8A34
3D926555
BE5AE4B5
3E53FBE1
3E3588A0
BD82863A
BC0A8641
3CE938C4
BCF6B65B
BE59A9A5
BE77ED1B
BE402FEF
3E3C2E07
BE43DB7D
3CCEA4AE
BE505F2B
3D644F1F
BC171A99
BC8F71D3
3DE9C180
3D3F7FFB
BCD57847
3DDAB468
3D3497BD
BD97DCB3
BD121F8A
BE11BCE8
BD08DEC1
BCC67ECA
3E8C3ED3
3DF76566
3C9A60F5
BC4B7676
BBFB3A73
3D09C7DA
BE01E613
3E41AA06
BCC4E4C1
3D3E8E50
BE245057
3DF57488
BE61C05A
3CF6191C
3DE93E8D
3E2B4D8C
BE2A8C7D
BC80A303
BE2BEF8D
3E77639E
BCF50C3C
3DC9AE63
3E05C510
BE07745A
3E191DB1
3D5D5660
3E79C9B7
3DE7213C
BBB8B8D9
3D31F83B
BE26395A
3DDD27BA
BC35BA4C
3E38E211
3DF8BE01
BE6D4A99
BDC488BD
BDD31B19
BDFD924D
3E7AEB2C
BDB5267C
3E78708C
3CF5D5FB
BE133BC8
3E15FD5D
BDAA9E0C
3DCCA890
BD976563
3DB4CCA2
BE46054F
3DEF5B2A
3C9CF717
3DB77603
3DCFCB62
BB9A9FD4
BE67E000
3E0EA745
BB8754C9
3E1185EF
3E0E7FB4
3D21DF99
3C2C995B
BE16DF9F
BE279E59
BE16E3E0
BDAA5DA8
BC455905
3DAEE092
BD42DC69
BE450AB2
BC838800
BE843665
BCD36548
3D1667CE
3DD6469E
3DD1C15F
BE398419
BDC96412
3C1A0A58
BD824F7F
3DD18FF9
3D3142FB
3CFF06E1
BE77CF89
3DB2FDF7
BD125872
BE13B86F
BD603D1F
BE47E71A
BD8BDB41
BEB6C26F
BDA25FA5
3E1CC789
BE44070A
3D6F7693
BE2FB2CF
BC6C49B5
BD59B5E4
BDBE87F7
BC5F7241
3E749E2F
BDDFD64B
BD8A7942
3B3F0EC9
BDF74EC2
BDD23834
3D81B241
3DCC8E85
3D3AD8D7
BDB39499
BDF6770E
3EA28A4E
BCDCFA0C
3EAC107F
BB9F0818
3D94497A
3C8FC108
BE26471A
3E81594D
3E7833BF
3E8A7A62
BE036C33
BBDD41BA
BED6AFF2
BED2F76A
BC9CFB99
3D80702D
BD1F85ED
BCF436E4
BE19F81E
3E778185
3E24E6EA
BE552865
BD1A397F
BE4E8BD0
BE9FF7BC
3E346687
3C7AA085
BEF25D33
3DE64C7B
3E876B3F
3D88AB36
BDC77510
BEAE1F37
3D157116
BE5DDF71
3DF40F94
BCDDD1F3
3D2B931C
BD967916
BD53609D
3DBED18B
BEFF601C
3E3B76FC
BDE9787A
BE410AC5
BED5F127
3EFB8956
3EA4E7F7
BE2D23B3
BDC35FC9
BC7C3769
BE32F15F
3DA11ED0
BE1AF67D
3D527838
3EA42DFE
BDCA5DFE
BDBF309E
3DB10C10
3E805410
3E039083
BE569725
BD1D6F29
3D439E2A
BEAA7B45
BDA8228E
BE054EE7
BCDFE858
BD9CAEF5
3D5BCD99
3D423A6D
3E99D1A5
3DCBF0B8
3ED53CB0
3E94DE6C
3E8CCD01
3E8291FE
3DD785CB
BDC64B13
BE9C5A68
3CE83208
BE432D07
BDF1A5F0
BCD205CC
3E6A5775
3E5913C8
BF00C7C4
BDA65256
BD9A2075
3EBAC3F1
3D38EA85
3E00D4CE
3DE7EC6E
BDB8BBFC
BE29CF72
3D01F3B6
BD667364
BE0B0FC5
3DA2D869
BD3A010D
BDAEC1FE
3DF6DF0B
BE78B6ED
BE7E9E78
3D655D4F
BE36ED03
BE33E3D0
BE171EBF
BE1A10AA
3E2CA14F
BDBCE9A0
3E67D07C
BD7AD566
3C6C2DF1
BEBA8623
BE29DEC2
3E814D81
3E7A2532
BD5359D2
BD2E730D
3CE9F0CF
BEF24635
3E1EEC7B
3DFE4058
3DA8622F
BE101A7C
BE35C386
3E61157F
BECC2BA7
3DE19463
BDFB867C
3DB9D293
BD5B132F
BD49F618
3BAFF221
3D9693C0
BCD9EFC6
BD859DEF
BE4C815A
BE106CAB
BDB0D263
3DE4FD7A
3DFF3664
3E065183
BB63B399
BEE03CD7
3E61181A
BD2A2B17
3E4F0878
3D62DBF5
BDE6D454
3EA3EA72
BE22A4F0
3DC50186
BCABC469
3BE68357
BE7127F0
3E034D86
3D8EAF8E
BD4D9D82
3E2234A6
3D1CFB20
3EBAA734
3E4B5BB3
BD89C7AA
BD84C50A
BCB3347B
3DA04C0E
BCE27D43
BE0DF76D
BF07600F
BE847671
BD8B4B80
BCFE33D2
BDC9CFA1
BD871C12
3CC2CD95
3E37B9AA
BE99EE56
BE65CA28
3DFAC4AD
3E1AA6DC
3C4E9671
3DC39714
3D658A66
BDE8DAFF
3E0AC718
BE1CEBA6
3E15303A
BE18C203
BDB0E883
3E1E356D
BDB92E8D
3E3B7E46
3F412EE4
3EA39C10
BF1999E5
BE0F4088
BDA1CEF6
3E146E8A
BF2EF74D
BE6D4775
BE990467
3DEDE7ED
3F09B230
BE925EAA
3EBE189E
BEB8E036
3EB60F17
3D69F60E
BDF1A6EC
BD21943D
BE811C14
BDD55FAA
3E705B48
BB727426
3E089B63
3ED3578D
BDC59269
BE47A149
3DAAB232
BE3A207C
BECF2CA5
3E6DA683
BE947C12
BCA20D06
3E264F16
BE57B3D6
BE6A8B00
BD63D6D7
3D84F140
BEC71484
3EE7E91E
3E9EB308
BC9129E4
BEC39288
BE7D5CD4
3EBF2798
3E336CDE
BE5038A8
BEF9D2A3
BE080F78
BD408E63
3E994EFD
3EB4AA6F
3E7BC880
3F20DD02
BE39287B
3E5A1C03
3EFD7061
BED4ACD2
3E9A9CF9
3CC5B9FE
3E18216A
BEF595C0
BE3F9005
3DF387AF
BE554F1D
BEDB4E8E
BEE34390
3EE30A3B
BD031297
3EAD574E
BD48E0CD
3E5328BC
3DC01C68
BDE2F015
BE0965D8
BE9BE56A
BCA8C14F
BEE02193
3DB39814
BF30D403
3DB3FBA0
3DDFC956
3E148F0A
BC9DA7D1
3CF49D76
3D6E2D70
3E7594AB
3E1C283D
BED130F2
3EDB308D
3E6DDCB3
3D923ACB
3E55079B
3E37F134
BE186C6F
3EA36021
BE506D73
BD96BC14
BDB344D6
BDF9468B
3D5BD704
BE45C3C6
3ED7584B
BEBBF958
BEADC73B
3E153DC8
3EA4B503
3DF0E35A
BD93E3DD
BDD22FC2
BD4E4C2B
3EAC7A15
3C37B010
3E7972A4
3D9E06A9
BEB0BED5
BE197019
BF245C93
3E741739
3E3FDE8B
BDFC3C1F
3EFECF1D
BE0AC728
BE99648F
3D1DA8D8
3E0264AD
3D211F45
3C3CB3BB
BE1B048D
BE0E565F
BD613849
3C9A9C18
3D3B5DF2
3E902DD0
3C699CA7
3E01995E
BD459C8D
BE4F712D
BE4FF233
BE6C4D2E
3CDAF356
BD8C3CEB
BD0CFEA6
BE62327B
BEC24D2F
BE0070B7
BD4BFD9A
3E5F96C9
3E56D201
3D971C82
3E5A8B22
3C4E940D
3DEE3744
BDDF56D7
3C34AD67
BC1DC01A
3E60CFFB
BE39B5B1
BE8D00E8
3DA7A01C
3D3E2463
3C97B80D
3E1073CB
BE444D09
3BD7A69B
BE995BB3
3DB2C354
BD58E211
BDBD2E4D
BDFB2BB3
3C1FBFEF
BD418E53
3D9FEA9D
3C222458
3E90F706
3DA9285D
BD23172C
BE7BECD6
BE7AC5D0
3E422B58
3E3B5C19
BEC4A610
BB57992F
3E63E7ED
BE2C35F8
3E022E2F
BDB488E8
3C87EA2F
BE660672
BDE27539
BCF0C179
BDA05F69
3E3DA1F0
BEB29719
3E0B71BA
BDADBA2F
3DB43679
BCB7EF3A
BE8B3D72
BD95CE03
3D97BFB2
3DB27A0E
3CFAA258
3EA905CB
3EF2E165
3E66F1EA
3E13FF16
3EC41203
3DBCD3D6
3D3AD14F
BE166844
BDA49EF9
3BEEDF31
BE32364A
3E1E5E97
BD1E6B45
BEE4792A
BE51D4A9
3E8BC808
BDE95DA3
BE092842
3E2A665D
3E95A52B
BB75AF19
3DEF105D
BD791F8C
3D82D329
3E97232D
BD81A035
3ED5B30D
BB848764
3CB47878
3E69732B
3B93C1D4
BE32FA97
3D997D96
3D99BB02
BEA722A9
BE12A7DA
3C436A78
3DA94E25
3E608F1B
3CC9C642
BE3E48BE
BD626BFB
3E8FCAE5
BE46273A
BEE29712
3DD39DD8
BED7EFE0
BE8FDDAD
3DA591A2
3E1DDC7C
3E9FABE9
3E73523E
BE243F98
3E4403E4
3E629B0B
3EA37AD6
BE84AA10
BCCB1BB2
3E469831
3E919E56
BEDA4E0A
BDD63521
BECB9ACE
BD4D859A
3D2E3BBA
BE55C01B
3D08C6C3
BE6C931F
BCCD38AD
BEBE5230
BD92BD1F
3D5B2092
3DB9F27C
3C3077F8
BDCAEC91
3DC5002D
BE90A6CA
3EAE29C9
3CEA93C2
BC9FC7A6
BDAD344B
3DD3A7C8
BE2DACAC
BE357121
BE57BC42
3E29A662
3E7B405A
3DB0B21A
BED9DA63
BA1B66CE
BE13C01B
BE60A1B6
3D9C72EC
BE26899C
BE48A7AF
BEEC7C26
BE489E9F
BD7D0D8A
3E17BB27
3E2B72BE
BEECE86E
BE446BC6
BEB986EF
BCC8138A
3ECF07A6
3E981EAC
3D04CFB3
3E8DFEA7
3CCE659E
3CDB9644
BE6A946D
3D97181D
3E6981A1
BE82ADD6
BE86E267
BEB94DBF
3ED78A9C
BD3A6D9D
BD5613D1
BDA16F46
3DF59345
BD59F86F
BDC875A7
3EF753EA
3E8AC17C
3F559205
3F1489B3
3F0E51F5
3E1083BE
BDE6CF49
BF0C5A5F
BEF17960
BF06B141
3EFE45B7
BE96C438
3E84C548
3E006CFD
3DD8276F
BF1DA52C
BF0561A9
BE51DEA6
3EC39614
3EF4C904
3D280664
3F7544F8
BD652F48
3D7D2F2B
3E8192AE
BEF766F7
BCF8E6A2
BF20FDA1
BED1BAA9
BCD3D1D8
3CE79633
BE2B24A7
BE0B8958
BD1E2AC8
BF0A4548
3F3EA3E9
B9F13169
BE7DD416
3D99BB6B
BDBA40B1
3ED32DDC
3E4A29BF
3CDCB71A
3D9C20BF
BDA76890
BE32F1EE
3E1A7D36
BE236F46
3CE4C1E0
BD852DFF
BEEF6733
3E2F037C
3E2C0788
BE1D66EA
3E428CFA
3E50D972
3CB45415
BD6F7056
BD8764BA
BE008179
3E135A26
BE2B0B45
3E3348EC
3E37D291
3AF43FAD
BE1A9CE4
3E09E07A
3E6D4DDE
3E29BD93
3E76D9F6
3E9ECCFB
3DC6CBEE
BDBD50B3
BCC34B0E
3DF4A7DF
BE438C21
BDE03C29
BE3D84DD
BC9F1DD2
BDB1228B
BE0C94F5
BC346309
BDB2575C
BE4E927E
3EB85735
3D8FE8AA
BE741C56
BDB4E733
3E22579D
BE047655
3E0CFA45
BE362C2E
BE231A72
BDFD4E96
BBE0005B
BC863381
BDDA62AF
3DA30C92
3D0391A5
3D69E864
BE80DDA6
BCD9E3CC
3E149388
BEAFA9EC
3C55C67B
BE069C1A
BDF82C26
3E045C9D
3DCEAF68
3CC85D0C
3E5B5825
3CE003BC
BEA9D0D0
BE7570A8
BD289A28
BECA1FF4
3CEEDD2D
BE3142F1
3E4BCA5B
3E233F44
BB87D1B7
BEC5109D
BDA915E5
BDC76033
3D47D82D
BE818FC6
3C1F887B
3E0F17AA
3D55BBCC
BE898C64
BD2E4793
3E93FF90
3E5D8099
3F327522
3E962EE9
3D9FD574
BE41E0A9
3E31F39B
3E825EE8
3E198B1F
BE67AAB2
BEAF9BA0
39B9EDB7
BE767935
BE0606E0
3E840727
3D738C35
3DAB44DC
3EDE4CD0
3E138E47
BEF4217D
3D9CA1A9
3E88AD0C
3E9ECD7E
BE81309B
3E3A4342
BEBA833B
3E997045
BD4664EF
3E3C65BE
BE064279
3E36734C
3F207B5E
3CAB195D
BDB6B44B
3DFF2CA6
3EDDF50A
BF072981
BEE5215A
3E666CF8
3E940136
3E82444A
3E946D53
BD460436
3D670BD9
3E803A6B
BEDFB7C4
BB41A8E5
BDC694C0
BE9D85EF
B87F8EBF
BE84DFEB
3E377913
BE420FE2
BC262E7D
BDE8CD1E
3D670664
BECE9E7C
BE0610D3
3DA382A5
3E659F97
3DBA475B
BE725AEB
3E0FE152
BE79465A
3E23C70F
BDE9CB16
3DFA1DB0
3F093CB3
3D5956C1
3E9FDEF1
3EB1C215
3A8E338A
3E6678CD
BDF9853E
BE339004
3D8ACBC1
3E0C19C7
3E571435
3E9247E4
BE8BA042
BE8FB290
3E797DB6
BE4D64B9
BE93A3F3
3D2A636E
3C773BA1
3E6C33A6
BE647084
3E71BE5B
3D10F99D
3EE845D2
3E5ACC38
3DCA0C4B
3D03D961
BE72B198
3EFE0183
BD72EB95
3E5F4032
3E89F966
3D59CCE0
BE83FFAC
BE773D69
3E96DFF7
3ECB32CA
3E6110A0
3DA493F9
BDA8FA3B
BE3D3A55
BD2F5E9D
BE57FC13
BDCFADF3
BE16347C
BE3E510F
BE6EDB38
BDBC63A1
BD3A6300
3EAE2D5A
BDF74F18
BE112D44
3D5B8F18
BEBD9FBE
3E18F198
3DE6D001
3E79F4DA
BEB8842C
BEEA7FD2
3E103532
3E8DD85B
3ED000AC
3E65096E
BE8DC519
3EE9B84B
3E33E127
3E365B95
3DDD3F5D
BDE16A48
BD38DE38
3DBB9F41
3E721636
BE3CF7C3
BE969F19
BEBDC2F2
BE323230
BE4F711A
BEED18C6
3E26BEED
BCA44900
3E9CD5E0
3E883B1F
3BE1BF4D
BEB2CEB3
3EACE38B
BDD7C91E
3E2B04F2
3DA78ECA
BDACD8D2
3E2E8191
BDD12C3A
3D86FECF
BE51160C
3D115B2A
3DD50C7C
3D0E72D7
BE48CDBB
BDC2D8C5
3E95D3D2
BD920833
BD0E9D5A
BD426934
BE85C92F
3DF1EA9C
BD90762E
3D0DFC14
BD8C1237
BF33C42C
BD49817E
BE0BF1E9
BE83DF16
3E6C30FC
BCB0DA1D
3EEA1861
3DC3EFC4
BE1669A4
BD8429A8
BEF773F0
BDF3BBE4
3BFC8993
3E8F1029
3E80909A
BD90D00C
3E464981
BCF80901
3DF2DC49
BB24EADC
3D829CE0
3F0B690C
BDD3C430
3DC27BCC
3DB8B20E
BD84FA18
3E1199A3
BE41AB96
BD67C1B8
3EAEC84D
BCF7321B
3E0BDB8F
3D5A1A4B
BE6B88E0
BE7EF837
3ED8D697
BDDBC591
BE1CBB8A
BD283EF1
BD323B77
3E9B4B0D
BDC61050
3E6E6D0E
3D174FEB
3E2BDAF4
3E9970D3
BE343A1F
3E26A3C6
BE9AF6D4
3E86672A
BD994217
3E5F499E
3CD93FE8
3D4414E3
BEC85984
BD975339
3DF8BEAC
3E6FF182
3CA94249
BDB57003
BE102DCB
3D52456A
BE8B8DA1
BE293F14
BC6A5BC9
BE9A9851
BC4761B4
BEB7FC64
BDE0AB84
BDBFB7B3
3EACD97C
BD00057F
BC60E78C
3D70B1B1
BED8BBB0
BE4C2AEE
BDCEFEAF
3DFF0C49
3EE7267E
3E296A7D
BC8D1F88
BEB79031
BEAEABD4
BE5AC175
3E5D0A6F
3E19AC53
BD826377
3D6C443C
3CDB7485
BDBCF84C
BDF904C0
BE6DEDCC
BE3030C0
3EA1C36C
3E599BCB
3EA4409F
3E9575FC
BE2BD427
3D18AABC
3EAB6F71
BD853126
BEAD3849
BED91F59
3D1B3591
3E9D5A42
BE9591B1
3DD428A1
3DC95E23
BD2F8F5F
3E927FA2
BDEA004B
3D6A2D6E
BE84D7CA
3EF3FAB4
3E258CBE
BD92AFA3
3CA80FCF
3EAA656E
BE290956
BD891CAC
3E48A70A
3E0F8BB1
3E413847
3E446655
BE0EE8EC
3E6F0F56
3A9E77FB
BE0D3AE9
3E9AFE39
BE93A7F5
BD949831
BE4EDBE1
BE5D0B9F
BE4A2982
3E27DC12
3DAC1B05
3D1937A2
3EC48546
BCF886FA
3EA8AE5A
BE42D712
3CBAAB8D
BD2C795D
3E26E92C
BE449D78
BE21D207
BF2B7A79
BD314A4A
3E0FC49E
BCA327B2
BC876D47
3DCB2998
3E961629
3E33CF53
3E86A3AE
BEC33B91
BE34C3DE
BE0EAB1A
3D9B89F8
3F05F3D2
BC352856
BEAC9927
3DF41651
BEAC2289
BDBEFBD8
BEE0392A
BE06043E
3E89B20D
3D21DB32
BEB7ED78
3E575505
3DE982C4
3E036035
3D9D936D
3F22748C
BE3CF913
BE35F81F
3EDF0EB6
3D891CC8
BED20802
BE34B852
BE848BAA
3D1EDE3A
BE947949
BB933A85
3E45617A
3E037795
3E18E778
BDDCC329
3E4AEF1C
3F10B115
3E7116D6
3E789E04
3E031EC9
BE9635C3
BE23E023
3E1077F1
3D80B98E
3E05649B
BE1750E1
BD67E49B
BDA12BDB
BEC8148C
BBA15E9F
3E2B0743
BD375F27
BE8DC99A
BE509FBA
3EB9E0BC
3E19A406
3E3CF51B
3E0819A2
BE5C2A1D
3E6C83EF
BC446661
3D9FE713
BCCE27D6
3E6DEE13
3E83400D
BD937D28
BD012F8B
BC97B13C
BDBC8ACD
3CA6A144
3C89B083
BEC15AB0
3C23FCB4
3E0E8A6B
BD737429
BE04D00B
3E965872
3E020173
3E45C773
3C6382DC
3DB7BEAC
3DF42DF2
3E78F4B8
BE284470
3E56C045
3E3CE86C
BE5F2664
BC955790
3D1D5F1E
3E5BBADD
3E595449
BEB46E41
BD6AAAE4
BE0BF6E1
3E2DD1EF
3E1AF014
3E8822B6
3D3ACBCB
BEB0EEC8
BEA07CC5
3BEF03C4
3DCDDB90
BEA0AE99
BB015987
3E2ABB95
BE825883
BDB741F1
3E83F6C5
3ED96EEB
3D728B10
3CD95333
3E71FD93
3CA24585
3E65F50B
BE6F2B28
3DDA1B4A
BCAD81DE
3E6A5BF2
BEA48C52
3E49AB49
BE3326FF
BC8E692A
BC20830D
BD8AE7FF
3D487B09
BE240080
3D6E4977
BE346313
BE9C27EF
3DD402A5
3D32D2D3
BD46FFFF
BCF4744C
3CEF6F29
BE77545C
3E4D9E5C
BE0B3E3A
BDAA6D8A
3DC763AC
3E514409
BE8D6197
BD2AE76F
BEDACA30
3E6F16E9
BE90DD85
3C8B8809
BEC397C2
3D98FAA9
3CBC448A
BE7F5671
3E582706
BE4E893F
3E118D50
BEF36124
BEBE91A7
3D361711
BCF9A964
3EAC0E02
BECC3074
BEB560A3
BE5BA4C5
BDB03EDE
3E35434F
3EC0C635
3EA58ABD
3DC98ADF
BE822354
BD0F6DFA
BEB1BD1D
3D0FFD84
3E65CEE1
BD136565
3D0FA160
BD093DF7
BE87D2C0
BDC17657
BF021D04
BDE7DBA3
3E69BFCF
3E3E4CE9
3DB0E90D
BEFE58A9
3E034F6F
BEC8EF6C
3CFB3AEA
BEA9AFA8
BE6374A6
3EF3086D
3DFC5E3A
3EE1337C
3CF15502
BE9BF559
3E805F72
BD26068D
3D7E72CA
3E70F77A
3E913EDA
3E248543
3E4AE775
BEDBD431
BEBC0681
3EF4BABC
BE705D3A
3CE76EAF
BCE71ECD
BE5BD93C
3EA13A51
3E1D55A8
3E9D42DA
3E87FBBC
BCA84D41
3DD35344
BE6EE7E3
3E76DAF6
BEB672BC
3E8B39AD
BE1D5E52
3EAE29AD
3EBDA6C3
BD9484A3
BE982064
BD3995F3
BC9A990E
3E643CCC
BDCA5E02
BDFC2E3B
BD97E4CB
BE0683A1
BEC87110
BDDAEC6C
BD946113
BE7EBBFD
3CE9FE8C
BF04E6C2
BDED2462
BDD447CB
3ED78250
3D1F2E3B
BE14767B
BDF8833C
3EA5C31B
BD1D5236
BDE92FCA
BDE206F1
3DDDC687
3C8DBE64
BE6BD513
3D781098
3E254F87
3E1BB18D
3E2D978A
BE16327F
BC0A6B89
BE38DDAA
BCBF5347
BDC95F7C
BE810263
3E6C5E80
BE024C5A
BA948283
3D537C9A
BE64DE8D
BC9ADECE
3EE819F0
BDC3A9FE
3C9A8B31
3DD6EB97
3DEA6877
3D186699
BCD3AE0D
BE6574BC
3E66F258
3C522E8C
BE280447
BEC39B32
BE29C052
BE3616A3
BD0ACC95
3E243D93
BE790B22
BCD24EF2
BD573B83
BDEF98E9
3E90C86F
BDC794B7
3DBE1216
BE92A210
BE9BCA4C
BE6CEFE8
BC86A800
3E763C06
3E542FE8
BD1DA21A
BE1636E6
3D7367F4
3E09069F
BE0540D7
3E4DD2D7
BDD3024A
BDEB06CA
BEBA9324
BDB6D996
BE53232D
BDEAD799
BE11080D
BECCF3F1
3E3FC331
3BD87F33
BC9B7AD0
3E262DF1
3EA0A2A0
3EA0A3F7
3E9BAE7B
3D8F3137
BE4E11CE
3D033405
BE6DCBB5
BD7010BA
BE0D3973
BE5A9E10
BC1CC94F
BDB90A75
3E719070
3E844838
BE39244D
BD9FBB6A
BDB0C0E4
3DB88CF8
3E912B2C
BCE3977F
BD4BA95F
3E068D18
3E045353
BD8ED880
3E7663BD
BCAA0AC0
BD17E65B
BD8A804D
3D9800FC
BE13770C
BE7E0E7B
3E0D1610
BE319E53
BE13D38B
BE4BE482
3DB4E65C
3D1544F3
3E085D64
3E3BB895
3DE4E8E3
3ED9AAD7
3D50D776
BDFAA4BB
BE8B10F3
BE33E2C6
BE00143E
BEBA3E1D
3D7C7381
3DD162A5
BE849037
3F0FFBD4
3DD1748A
3D17448D
BE021B1F
BE34D02D
3E714BFF
BE38043E
3E0F1446
3CBAC69B
3E4AA429
BEFDABD9
BC6C32CE
3E1AB9B2
3E54CE44
BE9A64B4
BED147DF
BE252BA3
BC909B13
3F0A9ED2
3C80B999
3E6424E0
3D2A15A8
3EEE6368
3DB4E0D7
3E87E24A
BED0791F
BE93146B
3E09A756
BD321519
3D263099
3EDBBBDD
BB8288F1
BE03CA1D
3E135828
BE03C4CD
BF1FDEDC
BED56676
3E468599
3E936812
BED402CC
3EC61E2A
BDF0F172
3DEFF7C3
3E81F104
BD6C7610
BE3D9C16
BBAD37F2
3F42941C
3C893086
BE6EF6EB
BD9BB85D
3DF59712
BE7BECBC
BEAF5BBD
3D64CFCE
3E9FF1FB
3E09F154
3E9B67B3
BD9563E5
3E94C010
3EE21A9E
BEB5CACE
3E8A2834
BD474E18
BE3E0DBF
BB1CA4E7
BCB0615C
3B9AEAD2
BE88D363
BDD6AB7B
3D943CE9
BBB9F30E
3CFD498A
BD473425
3E36B799
BD128855
BE5A68D2
BE314F08
3ED607DF
3D333E69
3D9795B4
3BFE3C4E
BEF1CDEA
BD0A46D1
BE2D7167
3E3390AE
BE334795
3D3C8608
3D65F83C
3E9C8293
3E94B032
BBE2721F
BD42AA53
BE5C8776
BDEC9EA9
3CB54485
3D895300
BE0CF2A3
BD4AFB0F
3E0B6C0B
3E557723
BE275FBB
BE2ED2A1
396569A3
3DB649C9
3E775B2A
3D6F5CDC
BD536AB6
BE2239D0
3DD9C0AF
BD9845C4
BEBB21A0
3DB9C908
3E876090
BBC67A89
BF07B026
3DFC54A6
3E4F63E0
BDD95232
3DB00413
BD1233E6
BE66B642
3D877B47
BE8BDEC6
BE7775E6
3E63EB89
BD40E337
BE75BCFE
3E9A1A72
BDFE1C11
3D970C91
BE8838BE
3E3CECB2
3CABBEC0
BE8385A0
BE52E276
BE6ED106
3D11EB60
3DADF46B
3E133E74
3C80EB48
BE6D6E86
3E8CC232
BE73928F
BDD0407B
BE0A9A32
BE977AFB
3E8BDB54
3D93F9C6
3E987265
BCC8ED04
BE2CE10B
3E714CE8
BCAEB87A
3DDE5BCE
3E0435C5
3DC9313B
3CAD3085
3DF59F0B
BE4BB65C
BE6E9AF4
3E401F5C
BEA44652
3E426AF8
3D7E0999
BE36256F
3E17648D
BCBF4413
3E8068BB
3DB6FDE1
BD8467E9
3CA19612
BE22596F
3E853A48
BE82D624
3D83FD5E
BE1C0508
3E8A7C92
3D967190
BD8ABD5A
BE1AC5A2
BD8AB519
3DB5904B
3E5E5A6A
BDCF9C28
BE32B77D
3E1277EB
BE2E23D5
BEAD60FD
3DB1B038
BBC5CE2B
BE397719
3E2E9C98
BE818893
BCC440FD
BE75524C
3E6731D7
BD8041D8
3D8E00F1
3D09544A
3BC4E522
3D1E28FB
BCF3FFA7
3B832A6C
BD57ADC9
3DF0CC86
BD42ED02
3D985BCE
BE53F042
BD7971A6
BE09C931
BE1819B5
BCE83FD0
BBE72818
3DDD6BF0
3E0FBA3A
3D36C353
BD8AE2AE
3D85C1A4
BC9C4A8E
BDD6B39A
BD9DF38A
BE8A719F
BDAC538A
3DD15230
BE66F532
3D603E0E
3B93D661
BD808658
3C128B53
BE2FEC78
BDC1A801
BDEDF8DA
3DC88969
3D816D2B
BAC0AA55
3E68A755
BDB41DB3
BC9801C4
BD7DF3FC
3E0D0D3B
BE43C632
BDF6E726
BDC35248
3D7B8E10
BDA5C775
BD3D81A3
BD3A496D
BDDA86A1
3D2403CB
BBB3942C
3D9ABA1F
3E5E3F6E
3E07C78F
BD76BE63
3D1F941F
BCD5B6D1
3C01FAC1
BCA00CB0
3D939B39
3D0DA5E6
3E8B0D77
BE97A998
3E944EC2
BE508DFD
3E799B60
3D4DBF8C
BE035098
BDBEAF6F
3DFB9EAA
3CEA0629
3E46D6C9
BECA4407
3E092D8C
BE13B8E9
3C520E6B
BD8B9E65
3E68C18A
3E39569B
BE49D720
3E8A0CF0
BE67D0A9
3EA12CF9
BD6AEF3D
BE891601
3EA16BDD
BEE78852
BCC220E7
3D688D93
BE52F08F
BE6A83DB
3C027EF6
3DABD199
3D9EB1A9
3BA50258
BDCB399D
3E6B5A7F
3EB21D4F
3E5D6A74
BE295470
3E450B02
3D04CACD
BCC0EA4B
BD84D0E9
BE4840CE
BEB6EB0B
BE8F3C5B
BEBCD380
3E305DB5
BDC3A0A5
BCDA4622
3E17C8FD
BE356116
BDE2ED35
BD36E0C2
BADD2103
3DF6F0AA
3E51FE69
3D7479CD
BCA7C561
3DDF6905
BC37E33B
3E7197A1
3CA2758B
3CAA4DC1
BE29E468
3E507A8F
3E078DEA
3E3C577E
3E2F3CDF
BE84C78E
3DB38685
3EBE1DA2
3E3137B4
BEEC146C
BE39283F
BEC4E8ED
BDA3A862
3DDFB0A3
BE385257
3D6B6D46
BE7FFE50
BE92EFA0
3DC855EA
BEC8C6DB
3E2DE54C
BE4B61C4
BCE32E0D
3E7DAAF5
3C972216
3E173326
3E01DF3C
3DBAF781
3E2DF6D8
3D5744F0
3D29C01D
BEE8C7CA
3D35EFD1
BE8772AF
3E0145EE
BE7356F6
BDD05974
BF00DC1B
3E44F7AF
BE59BB40
BD05C5C5
3D92DE3B
BD3D78D2
3E940D05
BE37FF96
BD85721E
3E1E7E7D
BD345E9A
3E09697B
BF034E83
BED36E5B
BD51BE69
3E7E38F1
3DF23B3E
3EA4173C
3E4260DA
BD7A6B94
3D44953B
3DB48624
BEA95D7F
3DE8DB96
BCD0FB96
BD2BEAE2
BE1E1F44
3E0CDAA3
BDA9993A
3BF8D8C4
BE773292
3DB1E795
3D8B8845
BE482609
BE09AF9D
3E18515D
3E9595E6
3DF89305
BDFD5B1E
3DC4CC78
BE879A96
BE0345E4
BE3D69E4
3E1985FD
3C8F87AD
3C3DE3FC
3EA49AC2
BDF25180
3DE6A285
3D2DBEB5
BEA0B9F0
3D795983
BE96B8DF
3D1B9DAD
3D0407CC
BE906A64
BD9CEE64
BDC8B233
3E6AC895
3D20797D
3C6C91EF
BE01CDFD
3E304716
3D7B9CF2
3E681F7B
BE13771D
3E2FD77A
3DB832C7
BDE7CD78
BDCC69FD
BE0D1C15
BC17F9DC
BDF1B558
BE91C07F
3CF22059
BD91C990
3E0AAF02
3E3CB827
BC6F3171
BD8CBBDF
BE030BA5
BCC20325
BCA9E541
3E856D3A
3DB2DD6A
BDAF1EB8
3E508881
BDB318C9
3DE66D17
3CDCF62B
3DC27DC4
BCFA2256
BE37CE70
BEA85B65
3A950DD1
BEBDA79D
3E20CA3B
3DD2ED3E
3F1C3D38
3C2058A2
BE624B74
BEB0BDDE
BCA032D1
BEFF93B0
BE11760C
3D62BB0F
B9DCBFB3
3DE18073
BF062B72
BEF36A0C
BE88EF6D
3DB557CE
BD766654
3DFEEC8F
3F051257
3E5661B1
3EB9FE77
3DA036A6
3DCE1E27
3EF8866C
BE5F9DD0
3E869E4E
BE775EE1
BEB12263
3E8095E6
3E0A3A11
3D888B77
3D26241D
BF27B14C
3E0B9313
BF54DABB
3EAE459A
BBE27568
BE7F67C1
BE229823
3E363968
3DC39618
3F0B5FE1
BE8164A2
3E1C7A06
BDCE5343
BE9EB97E
BE7B08D1
BDB0AA0A
3E096810
3E8DE577
BF00ED04
BD66179A
3E8AC253
BD87369B
3E2187E4
3C8599A5
BE83BE33
BE1BB6C5
BEACF172
BD438B56
3E84E84F
3E2C89D3
3E93EF31
BDDE15C5
BD9D33F6
BE9DACBF
BEA9C8DF
3F05D62C
B9CD32B0
3F31367B
3E1AE1E9
3EF10464
3D320CB5
BEF5AC8E
BE9028E8
BECFF940
BDFCC6B9
3EAECC8B
BCA42CF2
3DF47CA2
3D049B1A
BE7B325F
BEE40284
BEA14667
BE9E18EC
3EEEE3D4
3EE03719
BEF10EB0
3EEB145D
3CDF0D26
3E628549
3EA3DAC9
BEB83C8F
BE04F8AC
BEE668CA
BE947D28
3CEEF6C0
BE8C95BA
3E888406
BDF4BECD
3E9273E2
BEA39C31
3E3929EB
BEA960E2
BED1A126
3D8CFC8C
3E8B7A41
3E05E8BB
3E7C793C
BD69656D
3DD76E73
3D0E4AF0
BE553F67
3E0E88F8
3E7EBF5A
3D332031
BB53CC41
3D0E3811
3E5F634D
3EF02A02
BC316A36
3EC0F5F9
BE56E09D
BE1268E0
3DEBAC3C
B90C2AC3
BD178F61
3DB3E86F
3E972129
BD5C96A8
BE9F923C
BF31F531
3E74FE91
BEDE5889
BDCD3DDC
BEACEB78
BEE8DBE1
3E5AB264
3E91761C
3EC03AF1
3BEF93F4
3DC5F6A1
3E4F0D9D
3DD82AA4
BD00901E
BE96C41A
3EBED806
BBECA25B
3CCA163D
BF09F2A6
BEB31CE9
3D373688
BE79B3E3
3EBF6B02
3EAC53CF
BE4B0572
3D0B4448
3EC27848
3E3E2EBC
3D700886
BCDF1673
3CF10C84
3EAA8458
3D8EAA0A
BDACE628
BDA3E80E
BD23B7D2
3ED6A4E5
3ED9422B
BEA9AB50
3DE468A2
BDEB3883
BE33A564
3C06EBFA
3E5A4FBC
3DE0DE86
BB802247
BEDFB464
BE114F4D
3D2D6FC9
BEE50511
3E7A6F43
BE0BC389
BED3C9E5
BD39EA1F
3E5B0B1D
3ECA096B
3E235C13
3AF1BF20
BC0099F9
3C48DC52
BE0E9413
3EB5AAA5
BDFCCA34
BD32B0A4
BC29FE76
3E2974B7
3D865692
BE162C3B
BE8B4D67
BF10381C
BE32FB9F
BD61EAD9
3E4D575B
BDCEF10B
BF009E96
3DB021AF
BE1D717F
3EC8549B
3D19DC52
3BB91D18
3E8D5589
BE7A14C5
3D6B5CCB
3D3FABFA
BE91A95E
BE94B448
3EEA821A
3D977E78
BEBBAF74
3DC80278
3DA6415B
3E3BC483
3EA1313C
BE17E1B4
BE1A6E09
BE280803
3E288395
BE5D5DCD
BE6BD565
BED3701B
3D95A410
BC4B4289
BE4C2A4E
3EA48DEF
3DF0C5B6
3E6B10B5
BDACA62E
BE0CA623
BE45C23A
3E30EFC6
BD1046CD
BECA28F0
3E9370DB
3E9058F0
BDAADA47
3EF30F43
3D9EF5A1
3E2F6A90
BE94FE2F
BE117369
BDA852DD
3D70F889
BA8C67D8
BEE78D66
3D2E057A
3EC45762
3DF15F53
BD9A0DE0
BE4BEA8E
3EC0DFCB
BE0B05A0
BEA5B1C5
BE8B807A
BF442D4F
3E16720B
BE8832D4
3E86771D
BE8C7C95
BECEAF32
3E390AD1
3E578831
3EC9BA80
3E287EFB
BD215189
3DD762FF
BE59FBA5
BE3F9036
3DEB3ED1
BC220F8A
BC382307
3EB1805E
BDB8C091
BEA9E3FF
BC3963CF
BDAB131D
3E0819C1
3EF37BE7
BE555CB1
3E5C76E6
BE945497
3E334E0C
BEC488E7
BEDF269F
BE0A487D
3E63E703
3D5D2AA6
BF0C3A5E
3E56B0CD
3E971B71
BE5FDEC7
3DF4D0A5
BE814826
BE93AC14
3DBCA1C8
BE23BCCD
BEAEA0F8
3EC89DA8
3D9E0F4E
BEB7C5DE
3E59DBB6
BEBBDF9E
3E218C78
BECC3142
3EADD335
BDBBFAFC
BD9A5225
BE6E836E
BEE9948D
BE8B9024
3EB6B244
3E887094
3EAD36CA
BEA5E221
3E9924E0
BE60A408
3E2581AE
BECA088D
BEE10A8A
3EE64BCE
3D8B879F
3E78F53B
BEA5E5C7
BE84E4C1
BD0684BF
3D327C84
3CCEF0D9
3E8A482A
3EA26D3E
3C47FF28
3E9D50AB
BE45BE9D
BE66A5F1
3ECE3796
BE9929D6
3EA6506D
3D5B462F
BEC2A9DC
3EB83F00
3E10C516
3E7E769F
3DA6C788
BE0F02EF
3E1EA567
BF10340C
3E951150
BEC4EC82
BE0940E1
BDE8553A
3E8ADAC8
3E5C6D73
3D2A283D
BE53E8CB
3E122863
3DF87191
3DA06C04
3C18EBF5
BE1BE324
3D9869F9
BE205864
BF13B3DF
3D33FE2A
BBEBA453
BED3F336
3E6C08C9
BE9C10E0
BE274A57
BEB4DF44
3DDC682A
BE0E3537
3D0D6843
BDC5B257
3CE02EEF
BE537718
3DCD24D9
BDA5B584
3E82102A
BE134DC9
BDE1F20C
BE457533
3E024398
BE0A3862
3E35198A
3E2A35D4
BB8109C0
3C2C4CF0
BE84F79E
3D104DC0
BE06E9DC
3B44C81C
BE622E15
BD8EBA28
3E585732
BC5914AF
3E63E111
BE18900F
3E175A90
3E5E3B88
3DAAAF5D
BE002339
BD2B0D2A
3D1AC096
3E9B7442
BD837B25
BDF4F7E4
BDFA4D9C
BE0ACFF7
BD827A2C
BDBFA192
3E25E1EA
3D1A2EDB
3E5A5F30
3E23CBDD
3E1F27A6
3E6E2F83
3E9321B6
BE79E2C8
BE2EA125
3E108B5E
BE001873
3E66F17A
3E062815
BDB546B5
BD9A80DE
BE33AD41
BE818013
3D8DFF4C
3E028ACC
BCEE4D96
3BF40372
BE843337
3DDD57B0
BC001889
BD3EDDC4
3EAF1BB8
3D893642
3E90B74C
BD28E8E8
3D4FD5D4
BE21F36B
BEA09344
BE6C85D2
BE5FF30D
BE6987EB
BD18BF8A
3D449302
3D53DDEB
BE9A717D
3CEDB133
3CC620FC
BCA3114D
3E8EEEB4
BC2DD73E
BDBFCA3D
BE541AC4
BEF5AF15
3E58A5B4
BDB0017D
3DD92EE0
BDC667C9
3DDBB1C3
BEB23531
BDDD9F5B
BD049764
3E697F22
3DBCC5B2
BD580E5C
3BEC5A5C
BE86430B
BE872164
3C9E2245
BDEB5D75
3EE90AC9
BCC6A4E0
3D010BFF
3D977758
3E26AA84
3DA2133C
3D9E60ED
BE644964
3E0E60B9
BEAA3DB5
3D8C663A
BE160CB6
3EB54AAE
3E76BA89
BE95D8A0
BE64CE45
3E18D9D9
3D6588A3
BC9C93FA
3F0CE393
BD77DC93
3DFC886D
BE03673C
3ED3DE0D
3BAB72F5
BE00BC7F
3EAE0E24
BD6711B5
3EC258E9
BE33601C
BBA39C92
BE3F1DFB
BE0AFFCC
3EC04304
3DB12F3A
3EC4FC5F
3EA41CF9
3E5DD624
3E064629
BE791B8E
BE118AAE
BE6CD6A5
BE8F0835
3EC79DAE
BE5AE134
3E638E5E
BDF726AC
BE069BFD
BE5A2394
BE970838
3D6AAF28
3EBC7AEF
3EB5DF82
BE3957CA
3EFC64E9
BD938734
3DF43F16
3E08B7A9
BCC5881F
BE00B043
BED6BFF8
BE9D4A15
BD5A7DB2
BDBF114D
BDF1C092
BE13C67A
3DC6E07F
BDB4CFFD
3E7668A9
3D91BC66
BDC1DF90
3E3FECD1
3C876BFA
3E1932B4
3E29911F
BDFAD702
3E44D707
3E03C785
BE502751
BE184717
BD64DF80
BD05F507
BB640DB1
BCC4792C
3E5536AC
3E98B677
BE62AB63
3D734AFE
BE5D19D0
3DFB8895
BE53B688
BDFA80B1
BE15C5EE
3E6D7ADA
BE1E6FD2
3E3351D4
3E50C952
BE058080
BE4CF68F
BEC59375
BE3524C8
3CD68177
3ED7EB06
3E722738
3D0315A1
BDE04599
3E8C0E7E
BD81388E
3E368333
BE0F84E4
BE8FF853
3DB7DC40
3D93EF1F
3D243F17
3E6CF797
BE1DF9EA
BE8ECE49
3E9CBC1A
BDC87371
BE9EDCFC
BE3BC34E
3CC621C8
3E68EE0C
BDE71DBE
3EC85793
3C86E455
BDC3012B
3E89C7B9
BD8AA8BA
BDACAAF8
3D32F06B
3EF2A7B4
BD96677A
BC76FA73
3E4D0F4A
3DA20FE9
BEDFD410
BE0552CB
BE6E6550
3E5BABC5
3D876D75
3E1A02A1
3DB8ADA0
3DE028F2
3DB474AB
BE870631
3E2E3084
BDA23D90
BE908F77
BEB54F9F
3D712778
BD9CA539
3E1DD947
BE604ECE
3EC6093A
3BB33D44
BD8D2B6A
BDA21231
3E61CA74
3DBDD9B8
3D59F03C
3D94670D
3C660111
3EAD0B2B
BD7A59F6
3D94FE31
BE561FB2
BE08A5A8
BE6867FC
BDA6EF9F
BF01B4F0
3C475310
BE9AD317
3E3C5769
3D85FA74
BE05A495
BC80D3FB
BD1B1FD1
BE1D3E7D
3D63918A
3E9DE048
BD807276
3E846F27
3E5E5EE8
BDE5B6D0
BDD3B707
BE338B1B
BD821C90
BED29C2C
BDBD8CD1
BE4E81CD
3D4506D0
BE9BADAF
3D64D28A
BCD87C53
BED1C73D
3E96D49A
3E24A2E4
BE330FE6
BDBB99AC
3D8F03B5
3E1ECE1D
BD36D64B
BE12F737
3C517243
3C2AB4DF
BCB19630
3BC7A0D3
BEAC4030
3E4199B1
BABF9B8C
BDCC4A70
3E263698
3D951610
BE00ED68
BDAF0EB4
BD937FEF
3E1547D6
3E7CFEA6
3E44AB44
3E9F918B
3EA1586B
BEF85FBD
3D8C3F93
BE534BA8
3D72D1F2
BE0D83A4
BD92783F
BC17DBBF
3E60AB62
3EBFA0A3
BDF29A25
3E3F3822
3D15C9EC
3EC79BFA
3EA7EAF2
BDCA42DA
BE4F8F3C
BD93B6D3
BD99FB13
3D958293
BD853511
BD6C5754
3DCB8E3A
BE52A833
BE947503
3DDF11BA
BE50FD26
BE37122D
3E397A33
BE743875
BC917838
BDB4C176
BBFCEEA9
3E242673
BC02E2F4
3F06266B
BE3F6E9B
3EAD14EB
3E83013D
3EA2B787
BE93693C
BE25D352
BE17DA66
BD87DECD
BDCF1210
BE8C444E
BDFF39E0
3CAC4E5D
3D4E6754
3BDBB0D6
3BC0427B
3F37D23B
BD7D2BA2
BEB6D367
3EA1F1AF
BEFDB070
BCA10482
3D4FC80F
3E5FBE48
BD146684
BE227667
3E5150EC
BD2263FB
BAB0F784
BE00844C
BD58AB6A
BE064A29
3E24CA2C
3EA12334
3C12BE89
3E4A4A67
BE8C1F45
3D78DDB2
BE2E9556
BE96898C
BE37BEAC
BDE005EB
BE9A41AF
BCB663AF
BE2A16E1
BC330B25
3E2452CE
BBE9D88C
BDE774B0
BD0F0318
BC396379
3E03AB58
3E94E459
BE8A9746
3E118C20
3D13D3CF
BE80A960
3BF7E5EB
BD9FBD5E
BDF9E8D5
BE15B040
3D4CDDCC
BE169A16
3E05645C
BE54E90E
3CB36FC4
BE18234E
BE71343B
3E1AB2CD
BDB466FA
BE407DEE
3A8202A4
3E3D4A5E
3E006C2F
3DD575F2
BDBC6B19
BD8889EF
BD9CE898
3D12D324
3DDAC9B5
3CECF536
3D7456BC
3E156C19
BE4087A3
3E9A87F2
3DD7AF60
BDBD35EA
BE304834
BDDFE7D3
BE44F611
3DBC80D8
BE58180B
BDA100EE
BE95E909
3E5CDAC1
BD2F11DD
3E99BD10
3DA786BE
BC3ADA7E
3E240420
BD9076EC
BE6DBD57
BE9C54ED
BE5BB814
BEAB057A
BE118968
BEF7A7FA
BE9F6FCF
BE89A3DE
3DA9F1E2
3E0B0530
3D8AA08D
3D66C00D
BD0D45A7
BB867937
3BB822B5
3E744DB5
BC730149
3E3B750B
3E8230B1
BE5FC232
BE29A217
BDB78C24
398BB43A
BE0787E6
3C20D1F4
BEE2AF86
BCB2EC83
BEC47D60
3E51753A
BE0033E1
BEA28EB1
3DBC5290
3E0FC3C6
BA93DC9D
3E5E6833
3DCB7C0F
3E9E52F5
BC946B84
BE2F9F44
BDC5B07E
BD6E7A56
3DB4F212
3E1F8355
BEC11780
3DC15A09
3DBB8A0B
BE867125
3ED00CAC
3DB693A3
BDFA46BB
BDD92193
BE81109D
BDCDAC59
3E1A955C
3E4F25A4
3DEBBD53
3E56B5ED
BDD6C850
BE1502D7
BDAD2D87
BC8E9C6B
BE51E784
BDDCD96B
BE93AF0B
BDF5B0A2
BD8AB5AF
BE23DCC4
3DB2700D
3D8B93DC
3E2FAC35
3E931A08
BD49E5BF
BE4E407C
BDFE1426
BEC82719
3E1D82F6
3D8AF18B
BE451978
BE8E7D1E
3E19D5D2
BEB3C27A
BDD5E505
BE0CC1CF
3C079449
3E8D4675
BDFBB6B9
BDA27AA8
BDF3690F
BDF06390
3E2DAB32
BE0E6CC9
3F1307CA
BD247395
3DB56417
3E014E9D
3D64A6B9
BE3A8226
BC840F9A
BE729A99
3D457436
BE52F108
BAB876D4
BE24D1BE
3E89338A
3DC16C02
BE102A1A
BD9353FA
3EC15147
3E305242
BE39BFC8
3EC0FE9F
BE87595D
BD8D68E1
BC11A8CA
3E89C74A
3DD7F6FF
BDEC2ADC
3E7EDD09
BDC536F1
BE05CF7A
BC3821FB
3AB154CC
3D4A54FE
BE27B0D0
3EA39005
3EB103F8
3F2AE2B6
3F0502B4
3EC083A8
3E11B25F
3E360F9D
BE9E2735
BE939F3E
BE38E41B
3E913D2D
BE77752A
3E5F8C56
3DD25A5F
3E5D8F91
BF04781E
BF07EA5F
BBD05518
3E719394
3D954FA7
3E00D07C
3F1778C8
BE542D07
3DBF8071
3DEA8B6E
BE8F4CB2
BE3EE23D
BE80D204
BE71B522
3E90489C
BCBCFA2C
BE1478A6
BE2E80F0
3E09C6A7
BE4A0AFC
3F0444B7
3DF299CA
BE7E9FD6
3B99A888
BE41104C
3DA20715
3E9B83D3
3E32C4D4
BD32EBAB
BE0F5EC3
BE210D58
3DA541FA
BE143D08
BDBA31DE
BDC9CA67
BF09683C
3DAE48AC
3E1A30D1
BDF20217
3D962E0F
3E2C1B59
3E2CC000
BE160F56
BCBC7DBA
BD961A36
3D14D39C
BEDCBA31
BD151DA9
3E46763F
3D394706
BED6070C
BE891DDB
3E047096
BCD70A4E
3F5272DB
3DEB3224
3E2FD0A9
BDCCD669
3E8F7146
3E6CBF7F
3DA6A4CE
BE677504
BECA263B
3DEF3C47
3C0DFD2E
3BC80A86
3EAAB121
BD623836
3D256D02
3EACABD4
3DA6287F
BF2DD58F
BE6E97E9
3E97A91D
3EB25976
BE86355B
3E752B92
BEB708A3
3E8D6658
3D98AACD
3E58F12D
BE8C5293
3E409C9E
3F4E3C6D
3D559EE1
BE0ACD8B
3D577E92
3F040E1E
BEFD7504
BEEDFFA8
3E3E48AC
3E59DA14
3E8379E8
3E74CCBD
BDAFE647
3E5A5AC4
3EBC3AAB
BED89FB2
3EA5CCBA
3E1931D8
BE91587D
3DDB17F1
BE64A050
3DE251E2
BE718571
BB8C802C
3D378D88
BC02F84D
BD164539
3E2D3864
3D4AD152
3E0441B6
BD434204
BED6D752
BE1C9B20
BF05ED8F
BECE57F8
BED6443F
BE11E5D4
3DD2E88B
3EB3AE83
3E86A21D
3DD93F29
BE8262CC
BD600874
BDDFA68A
BDD73750
BD8E1572
3F003413
3EAA2641
3DA707DD
BE5FCD8C
BE9CAA85
3CB93D43
BF0C1AE6
3E868119
3D5DFA6A
BE6944F5
BC771AEA
3E90E0D7
3E06C40E
3E85F4C6
BE2F3F69
3DD40262
BB7A3840
BAF73A5F
3D8E5CFC
3DA679C3
BE8615C9
3D422FBB
3D38166C
BDA7ECC0
3E326DE9
BE04CC88
BEA41FD3
BDDD89E9
BE2725E2
3D7E6434
3DBDCD68
BE30BCCC
BD11C2E9
3D915677
BE0002C0
3E9C3B1F
BE710635
BE52CF5E
BC826E1F
BE3CEEDC
BD98C67F
BB02F5E9
3C8C3ABC
3D6CFBEA
3D93559D
3E1F5447
BD89ED9D
BD0866AF
BDBF210B
BE53E3B4
BDC86D2B
BE5FC639
3DB76FAA
BD3B9943
BC8E085C
3E4D9231
3DBF56A2
3DFF9459
3E846E57
3D69E67B
3D999593
3C0CB921
BE253A27
BE491C99
3DE6D982
3D005880
BB081A6B
BE498293
BDF95939
3E03D319
BD8300ED
BDC7B9AD
3E23B1E6
3DF16E59
BDA77181
3E2234F0
3E04F8BD
BDB7A904
3E1C2EAB
BE275935
3E84AC23
BCE71548
BB8A0903
3E0A0DE7
BD9E1636
3DD72F8E
3E8E108C
BE2F0FBF
BE1E234F
BDB709DB
BD1DFAEA
BD808453
3DF45025
3E40F026
BD5526DE
BE524067
3E7F6683
BE111618
BE2747F8
3E81EDD3
BE93FE6F
BE570AE7
BD3B8ACB
3DCFFAA2
3DDFE031
3E1A8019
BEC6D8BD
BD1F402F
BDA2BB23
BC185F1C
BC57A5CF
BDF20920
3E871F60
3E0D1DF8
BE169D58
BE00835A
BED9C60B
BE33805D
BDF7D1A7
BDFC18F1
BC6220A7
3D15798C
BE81566D
BF0CAC5B
3E8F903E
3D3BF988
3DFC38C8
3E04B20E
3DB1D2AA
3EED68FF
BDB02E86
3DB855BB
3D887B9F
3E02D3D5
BECF89D9
3D91A4B7
BC307A5C
BE890C04
3E5ED97F
BDF78A51
3EF0C53E
3E7D81C5
BE9E557D
3D57EEA9
BE82DF6E
3E39554C
BDDC6993
BDD35A60
BEF43ABD
BE0F625A
3DAFE7B8
3D8E0934
BB2712FF
BE1CD031
BDBC58DD
3D752358
BE95E7C8
3D0E85A7
3E16B1E4
3E0B28AF
BEAF16C5
3E5317E8
3EBE22EC
BD86DF0B
3E0DECB6
BD48C554
3E03C422
BE8D0C98
BDB20EB8
3DBF4396
BE30F8E2
3E0A9746
3D03E89D
3DDA0E39
BE3A8F69
3DB6C7B9
BD12BC35
3DD4C630
BE2178B5
3C6FC250
BE39E6A0
3BC227D8
3DFD3D49
3D27A8BE
BC8CE42A
BCADEA39
3DD312E1
BE391C64
3D4D2B11
BE8A514C
3DD5AD2F
3DD78A8B
BDB5341E
3E8115D7
BD280DFC
3E5AA57E
3C71129D
3D992C9C
BD65C4B8
BE7F928A
BE081340
3DAB11D0
3E2F2C33
BE255BB0
3E326126
3E0F9EC1
3DAC083D
BD6D76A3
3D7255A8
BE111D5D
BCC1A231
3E37ADAD
BE4BB7FA
BEA80DF1
BE1F177B
3DF65226
BD72CD9D
BD298BAA
3D87B7BE
3E31D8C6
BE3615AA
BCB9B924
3C989171
3E4B2659
3E16C08C
BDF74E3B
3DA60296
BDE1FFA2
3D50CEF2
3D789AC4
3E1A17C6
BD15274C
BE421CA4
BD6251CC
3D94F8F9
3DC3542B
BEDD7C8D
BC473A06
3D7BFBFA
3D974420
BE5706DC
BD2F67C2
3EB46981
BC512460
3D4084CD
3C275691
3DFA7BB6
3EAED84E
BDA87114
3E3CB74D
3EBFB907
3EEF7EC1
3EC91D07
BE84B8CD
BC691B82
BD11DD65
BE633836
3DBE56FB
3DEC051C
BF132949
3E0E8C29
BDE3880A
3D0A153D
BEF00928
3DC4F4EA
3EAA59BF
3EBE9653
BEE1E96F
3E1AE753
BD8F8A73
3F39664B
3E382881
3F06C702
BCA0323A
BEA57F4F
3F15970F
3E64ED40
3E557C5E
3E2D3F96
BE5204C2
BE1F6BFA
BE5093BA
3F016237
3EF58F12
3EC28BBC
3DF7270A
BEE2C7D8
BE9C2C46
3EBB8384
BBA2617F
3CF8087A
BE236837
3D592706
BE67DAC4
BE2F9A5B
3E61339C
3EBE2CB4
BC830D51
BE406333
BDB089B3
BF059EE8
BE3A2F64
BAB3034D
3E428A96
3E9922C6
BEA4C366
3D5873EA
BF00222E
BE0E37EC
BE23CF3B
3E52D41D
3EE2E079
3D6753CF
3E80354D
3E2F1138
BDACA3B1
3E979FAD
BDD22A93
BE5B6B88
3E2AA4D9
3E9CACE0
3E5BF6C5
3F067794
BF0F10B3
3A952CF8
3F0D7B63
BE94A7DD
BE9062B0
3D0C5CC5
3DD39BFB
3F0102CB
BE7D2C59
3EA47673
3DC1876B
3E230CA2
3DBEE64D
3D87B721
3E807FBB
BEA67B19
3F0D483F
3B5E220A
3E784A49
3E949B23
3E720A93
BEDFEB5C
BED32CDD
3EA0BF00
3EA1FB80
3EAFC872
3E1412CA
BE9F4AE4
3C2148BB
BE35FC8F
BE5A870D
3DE5119C
BE0A4130
3CCE3A80
BEE550EE
BE0599B8
BD0A91E7
3EA81765
BD4BA12B
3E6D98CC
3DC4B429
3EA4207A
3E83467D
BDA180A5
BBC074A5
BDB4EE8C
BDF3A4AF
BDB26F5E
BECED9FD
BF0BDD07
BE306A80
BE45F2F6
BE38A4F8
3E53D891
3E5D2058
BC4A70F2
3E1B9B79
BCC839E0
3C42FA51
BD8782F6
BE3FD56D
3EB37FF0
3E83B3AB
3E395A64
BE62344B
BE0AF4B9
BE92A824
BE023950
3DB2929A
BE24DEAC
BCA71314
BE1AF9B5
BDE8F975
3DE7B803
3E1088CD
BE058EBB
3DE711D6
3DCDAD37
3DAEF9F3
3D7B4E32
3E51BCB8
3E4B1658
BCF72088
3DFF17D4
BE4A1EC9
3E755CA7
BE07B254
BE9B5552
BDB50244
3C4BCE4A
3E852CCA
3D9ACDEB
BE320501
3E4D9BC4
3E70F769
3D62DCF2
3EB6621F
BD728C6F
BDEAD146
BCD47476
BDACA855
BD52DDBB
3C5A044E
3BAEF1C5
BDE2F62A
3E8271F3
BCD32998
BC7F0E48
BE02D994
3D4B66F1
BE4DEED0
BE3841D6
BE74FBAB
3DB802FD
BD9BC709
3DBB27AD
BE0BBBA8
3DDE8FB3
BDA3430E
3DB96B79
3D9B70C4
BDB6FEC7
BD67893C
BEA025C4
BE5FA4FF
3EA91C26
BE28C8BC
3E978914
BDA26AA0
3C7303F9
3CD5BA97
BDDBFBA8
3D99B69D
3BA55C70
BCB66C48
3D0A247C
3E1F86BF
BB99B32F
BE683987
3CFB229B
BE1CA81E
BA537406
BD249774
3CEF9FB6
3E413905
3DD317F7
3E6CC13B
3E8B7D75
3E593CC9
3CCEFEE6
BE41C1F0
3AF4C031
BD9D9181
3E68AC05
3E82EDAB
BD47F021
BBEFA3FD
3E1B9E34
BE44C405
3D9A5E55
3E9E630E
BE798F3A
3CAD7F04
BE0A7A5A
3E4999E9
BDDCB033
BDDFE7F6
3DD919A4
BE557632
3DD201F4
BDC5FCE4
BD78AFFA
3E25D48E
3C292553
3EF52B06
3DB7AE89
3F12CFEF
3ED50524
3EE1B9B0
3E8FEDD2
3D7BDFCD
BE1D9AC3
BEDDFD25
BD43CC7B
3DA1B278
BEA812E1
3DCC6649
3DD4D5EE
3E822E0D
BEECD544
BED95694
3D55A5BC
3EEE8190
3B2D3583
3DA32B75
3F12C4F4
BE399CD2
BE16E9F2
BC83FD35
BE61BBF0
BDFB1139
BEA21F3B
BE8CA8CC
3D973E65
3E61D88D
BE532988
BE0ECD58
3E52F1EA
BDDD79B3
3ECBE5B0
3D7EF3A1
BEA7357D
3E5472B5
3D420A81
3EA17250
3E67ED31
BD4DDEF9
BDEC5E4A
BE7863CC
3D23B084
3DA7944E
BD0B150F
BDC62B12
BD7E71D3
BF08E40F
3E415B9F
3E908027
BE25E54B
BE6737E4
3A4647CD
3DFDD38F
BE458DD1
3DE5199C
BE41A06B
BD3E5825
3E80C4A8
BE324320
BE9EFFCE
3D518195
3F068C2E
3EA8ACE4
BE9A418D
BBD59CAA
BF38B00E
BA96D36C
BE2E8501
3EA88AA0
3D3BB65A
BEBABB1F
3EAB6CEB
3D9A0029
3F1EFC58
BD13CEED
BE8FA490
BC8317E2
BEC482FA
BC3D95A2
3D8D83DE
BECF0CD6
BD886BC7
3E99FF93
3EA6B3FE
BE6E226C
BD4CC985
3D107208
3E6E0E0F
3EC83E63
3E240D6F
BE50348D
3DFD2D74
3E24D61C
BE5EBB47
BEB800D7
BEA17691
BD6BBDDC
BE1121D3
BF2775B8
3EF15380
3E2707C5
3E58CB7B
3E204AEC
BE8F4383
BEC6C8BE
3CE04F05
BE824037
BE9D0662
3EE145BB
BC454D31
BE8D1C83
3EE682A0
BE0BC9BE
3EB5DA39
BE5BC0B4
3E069061
3DBF3F15
BEBA7DBA
BDCDADDB
BE483F42
BDFD9A2B
BD744D8A
3D2A62D2
BE9CA87D
3C8CAF6B
3EBD6A7D
3E4E250B
3EABC9EF
3EA3666C
3E08D5B7
3EEBDC76
3D7FA359
3E1E608D
3EC56FF6
BDDF8606
3EB9222D
BDAF1F55
3E25DDAB
3E5F8E6C
BEED2F2A
BE29CA40
BD466103
3CDED832
BE81BE8C
3DC0E18F
3D841B5C
BE5613BA
3E2C84E8
3C7B8857
3E4DC052
BE322347
3ED59C2D
3DF6655F
3F123007
BC937736
3C329B73
BDDAE2B7
BC45AC1C
3EA03729
BDC2944A
3E1CEE1F
BAFB6D1E
BE8FD4A1
BE71F2AF
BDF89F55
3ED21915
3EFA71A1
BDBADA1A
BDC1CAD6
BD91A780
BD76ABEC
3D5C5A4E
BE2112D0
BE16B77F
BEC35D90
BB5470DB
BE5B0F28
3E12DC22
BE015A0D
3E845CC2
BE9BEE78
3EBA1713
BE12AA99
3E0E897A
BE6C64EB
3E3F012D
BDAB1531
BDCD3F22
3B8F2D5A
3DC3E01C
BE0796AB
3DB21573
3D62D459
BC8A0DEB
3CCCD8F1
BE460775
BE0C7B04
BE98E2EB
3EE013B2
BDBBD734
3D8ED737
BE8DB95E
BE055213
3E113E27
BE8460F9
3E8C2D19
BE2A8F2D
3E1E0E11
3CE71D70
3E7270D3
BE30AB7D
3DE95F71
3D7066EE
3DCC41C1
BDDF8A7A
BE672F22
BE97FD32
BBCB4EC8
3D8C9CED
BC37CB53
3E12CFD1
BE6993D6
3C5A82D8
3E81145D
3EAB6ED0
3E8297C6
BCECC403
3D8095AB
BD83BD89
3DFAC881
BDCECD54
3E9AA02C
3E0F699C
BE82AADD
BE930118
BE4CA474
BB58F09D
3E5995D1
BDAA159F
3E075DD7
3D345783
BE7E4266
3E1A203F
3E26C9D6
BDB7398F
3E65A833
BE2AB627
BDFA65E4
BCA23463
3E15D86A
3E2FCDA4
BD563998
BE7B8F2D
3EB3AF0B
BE98E502
BD89CCBF
BEBDF8B8
BF1A9B33
3CC356ED
BC0CED4E
3E80DA4A
BE9B396A
BD91CBD8
BCAED845
3E80E9CD
3E10DD4B
3D809F7A
3E6C4010
BDCF3C85
3D91CCF7
BDE4C5A1
BE8F7330
3DD29EBB
BD922446
3E89C341
BC06631C
BE948DB5
BE2F0790
3E79C37B
BD59B49C
3E19F148
BE82C263
3E273603
BEE3A0C5
3E577D09
BE64BF3F
BEB67D82
3DC1E6BD
3EDFB7BE
3E7193A6
BE802855
BCE2878A
3E9EC6E7
BE74AECE
BCC0DAE7
BD8111AA
BE0C9252
3E11C878
BE7518AF
BECCC853
3DE826FB
BE3B31C7
BE905934
3DDCCFBB
BE3B1BE6
BC857DDE
BE5F5B21
3E80DB25
BE170836
3DB3FBFA
BE0CA351
BDDFA12D
3B831F6F
3E53E244
BE19CBB6
3E8D25BA
BE72DCB9
BE6C94DB
BE94DAB6
BD42FD9B
BE916E06
BE5A56C1
BC8E152C
3B2756F1
3CF94C72
BEED8201
BE2C3A28
BE4595AA
3E470403
BDBB62F9
BDCA2879
3EB8FD26
3E42BC7B
3EA17D06
BE47E469
3DF10BA3
3EC21A92
BD7C53F9
3E2A507D
BD939922
BE5D0E3E
BCAA5A67
3E6C0A0E
3D036DB1
3AB0CB39
BEED7E46
BCEBB596
BEA7945D
3E84F602
BD46EA22
BE1A84C5
BE022281
3E746186
3EAF3EE6
3E291618
BDA40667
BDA2EF16
BE54579E
BE3C1606
BD9711BA
3D867C4F
3D97C519
3DDE9BF5
BE899FD0
3D44596C
3D6FF0AE
3E5BB83E
3D5637A8
BE258208
BE78ABFF
BCCB9535
BD025270
BE3BB890
3E9283CF
BE571B02
BCB3E2D9
BDB507BF
BC900AF4
BD1645C7
BE5787D0
3D1278BF
3EC63453
3E89A0CC
3F19D701
3E675752
BC5C47DB
3DAFE0B6
BDCDD735
BE2BBA6C
BB41AF97
3E993737
BC4AC81F
3E833A85
BD7ABE9B
3DAA325E
BE88D4C3
BF12E0E2
3E25BE20
B934C52C
3D85F7E0
3D77C126
3E97F674
BCA8DCD8
3E2F4CD6
3E1F16DD
BDF4C190
BDBE2367
BE4680A1
BE8FD498
3E78C231
BC679A4E
3D91A130
BDF4DF38
BD6CA570
3D7D2E6E
3EF0EB8D
3EBDFCEC
3E0A6A2C
BDD9D8A0
BD2B76AA
3E19F961
3DC0BE02
BC366379
3DC427A7
3BD3CF84
BDAC0FAF
BE814DA3
3D9C32CC
BE0EDC24
BE69E5CB
BE8B77E4
3E0F8045
3DACBC64
BE532562
3D88BDB0
3E6D645A
BD1D40D0
3D3D1176
3CE9C87B
BEC52E50
3DC92FD6
3DEB20C5
3E8238AD
BE9F26D2
BEAA38D2
3F09B433
3E7F5003
3DA1A200
3DCE22AD
BEA5A604
3E8AEC1F
3D9E21CF
3EAB0755
3E84595B
BDA17563
3E06F54F
3D6453F5
3EC02775
3D8CD837
BEB0D5BB
BE0C762F
BE8A2E6E
BE5A8266
BEC194D5
BE56C808
BDAC1BBB
3E591646
3E2E142E
BE042960
BE89AB3A
3D47DAC0
3D842728
3E93CBCA
3EAFA31D
3D935BBC
3E965117
3DB0D858
BD7CF0D2
BE2BF402
3C1704DF
3E61A96B
BDBCC0D2
BF224AE7
3E121D9A
3E467D29
BD7AF95B
3E53C568
BD0F6DA4
BE817294
3BD4FD1D
BEAE1FC5
BC6A66DC
3E414B3A
BEFE14D7
BEAE8B71
3C793947
BEE7379E
3E28A162
BE5340EE
3F0BF579
3E311D7C
3E7615D0
3EA74A73
3E0CF576
3E9B1F0F
BE4EF655
3C3BF7D3
BEA03B74
3ED5ABCC
3C8E4395
3E2DFF72
BE855E1F
3E3E2A60
3DE54062
BEB52E24
3C1B1C66
BDF3FA9A
3ED19489
3DC25A37
3DDF9254
BE196502
3E7A0DFD
3D59B5A9
BEC2E8E5
3E3AE558
BED343D0
3DCD6FDC
3E8147CB
BF070195
3E35CB0E
BEA099F1
BE178FEC
3E54733E
BD90B4D2
BE99E4AC
BDAAC4B3
3DD0D481
3E5EC52F
BDA4370E
3EB5F344
BEA18BF3
BB457E4F
3D7AD3D4
3E0A5CB4
BEEBD970
BED27DC4
BE49ABAF
3E744755
BD743B03
3DD31FC1
3E2EEBB3
BD804730
3D87B6D9
BD6ADD16
BCC5F944
3EF01D6E
3E417598
3D55AC19
3D4366E0
BDF03CB2
3E2B4F13
3E9E77CC
3CABBC87
BB21C085
BBB9055A
BC63B5FD
3C9B79F4
BCB81A73
3DB9E3A1
3DE785EF
3E467B70
BDF1BE4E
BE7E632D
3E6BAC78
BCA3F34F
BE31A508
BE09D41F
BEEA28FA
3DD8B552
3DCF275F
3E1C5ADA
BDF1263B
BE96C7A1
BDCFE9E5
3E275186
3E5B35C6
BC2A2DD1
BD401516
3DF97593
BDC342A0
BDA9B316
BE06D73F
BDB051C7
BDC1CB0C
3EB65CD3
3D008A57
BE79914B
BE2384D2
3E9CAAA8
BBBE5F4C
3EAFA933
BE305401
3BD6C6E1
BDD6F0B5
3D866768
BDD73CEC
BEADD101
BDDE7700
3CF3A874
BD0CDFAA
BEACE53F
3E23CC08
3E9E0C80
BE33DEA4
BE0B8D3A
BE2F1A63
BE8BC695
3DE27C19
BB985724
BE0004C1
3E63B90A
BE85A513
BC90EE34
3D4E6952
BE6FD14E
3E7D0A45
BE441CB6
3E85CCC6
3D3A27C7
BD77A518
BD865F64
3DBBE126
3D49153D
BDDD6AB4
BE1572F2
3E2C48A0
3E831331
BE7DAC90
BEA4E027
BEAF6E53
BB8B93F2
3EE265DA
BE56C8FD
BDC89861
BE30CB23
3DF4D19A
3E4CFA03
3D7BB0B3
BE24E761
BE82DF88
3E41C4B4
3E4545EE
3E7A9EFF
3E60D88B
3DD64767
3E4C7A9F
3CB9BDA6
BD22D979
BED16842
BE2DF3FF
3DD918B8
3E8EDC12
BEC1AEFB
3E8CD499
BE7B8EFF
3D4F9950
BD20920E
3DA68DF1
BDAF0F5B
BD1A139A
3F03F20D
BDC26FC2
BE323846
3D68A9C5
3E9C63EC
BD4619A2
BED77A3D
3E2461EF
3D9C1130
3E3024DE
3E99B584
BE26C3FE
3E151D07
3E58B536
BDD26C64
3F10C460
3D913C62
3CC34E2E
3DDD6489
BE2F34F2
BCD76532
BE6EBA2D
BE97E878
3EA040D6
BDBC5F27
BDA55E49
BE543BC4
BE06AC09
3E01B42B
BE0CB0CE
BE8E8C14
BC20876A
BE2739F5
3CDC11E4
BE29AEA4
3E0F5F42
3E003429
3C9F5617
3E04FFB4
BCB842B7
3F06532E
BB0EB9ED
3D95DD72
BECD9C23
BE27C9A7
3E500B1D
BE048697
3EBCDDB4
BEEDFB5A
BD3B9BFD
3E43864E
3DCA131D
BE839C0A
BDE9183A
3EA397E1
3E7A250F
3D2A206A
BE13D641
BE866FAA
3E5A3CB9
3E14B945
3EB8C184
3D34836D
BDE97834
3EF60E8F
3EF082C3
3E770D1F
3E8A9474
3E1CC0A6
BE16EE32
BE313AF3
3E70DB5D
3E04C207
3EF2A8AE
3EA25727
BEAF3A94
BE5BBA8A
3D95B94D
BE6B2631
BE5E0396
3E52F99A
BE709012
BD8EDEE7
BEB005FA
3E8C3791
3E5B6643
3E33E29E
BE8494FC
BE07B81A
3DE2DE3B
3BBE8272
BD2BBBB8
BE0F28A0
BE0CC859
BE7C58C0
3E2DAE83
BE20C2CF
3E355882
BD06A2C4
3E036E4B
3D89B0E8
3E3FA41A
3D8AAB8C
3EB8ACF6
3C48F9AF
3EB76AC6
BDF445C0
3C6BA14E
3D665A67
BBCD489E
BE0C54FF
3E7180F1
3DACF7CC
BE85E0C5
3D947674
BE8931E5
BE6456D0
3E5909FF
BD9E00B6
3E951A2A
BD0E3766
3ED97D50
BC8179A8
3E92E5F6
BD9FE909
3DB3190A
3B07BC77
BDDC4405
3EB8EE32
BE1F2BB8
3E03FF55
3E8AAB15
3D1E1E6E
BDB43BAD
BE918B4C
3E3D0DE5
3E7BB04C
BDBF49F8
3D53274F
BB2C2B6D
BE4B5700
3D9BA016
BD7D43AD
3C641A51
3DFD45E6
3D71C631
BE2636E1
3D0B9278
BCC06D73
3CB19330
3DEE6C46
BEA242D9
BDBF3BCE
3E82F01E
3E4D3E70
BEA8C1D6
3D8DB855
BE12E60E
3E3EDDA8
BDF431C2
3DE4D706
3E959222
3EB86644
3EE77F30
BC70877D
3C62C821
BE1E4E17
3EF62F31
3DC3BFA5
3D9EECA2
BE3A3E04
BBF14D4A
3E0D76FF
BEC841EF
BE964B22
BD8691ED
3ED951A0
BE113B77
BDED2F29
3D5D043A
BEAF119E
3D21C468
3E1213B0
BD02360E
BE4731BA
3E80E21E
BDE5AF73
3EB09F94
3BBFC491
3E048DB4
BE9E1EC1
3E954302
3ECD78A8
BC2B6162
BDB33DD4
BE408AF7
3E3F2AE3
BE1738D7
BE26A755
3E11986D
3E6A7ECA
BD66D821
3DEF9FC0
3E22284A
3E07A2F9
3E34688D
BE79C664
BCFCBC3E
BDF8B702
BDC1E065
3E5927E5
3D60AB6F
BD242158
BE6ADD69
BE34D988
3DCE0016
BD9902CA
BDFB66D6
3C0B555E
3AD96D19
3A6B6B1E
3CA243DD
BD5F1C0D
BD03E2E1
BC71E413
3D34C0AF
BD913622
3E7722BD
3D24D387
BD0FFC52
BE0899E6
BDDAA79C
3D13F484
BE14E481
3C6436CC
BE32CBDC
BC3BC965
BC8E16C9
BDD9A6A2
3E31ED22
BE0FC02D
BE060922
3E6899F8
3DE051F1
BDFD4B41
BD3E38F3
3D633029
BE22A603
3DF1466B
BE35650C
BC408C98
BCE2C4EC
3D1B4AD4
3D5F77F5
BE1BFD4A
3E1E5837
3CE3F2FF
3DE5AE19
BC34F97C
3D9C039F
3D4C1B09
BE399E7F
BDBDC65E
BD4693F1
BD5281D8
3E2B9E6D
3DCB9E7E
BDE8A954
3D1F67F8
3CEFC4BF
BE803C52
BDAFEFB3
BBD49F29
BDF9A25B
BDCFE358
BDFF416C
3E22F583
3E07E0B8
3D6008DC
3DBBF660
3E1C14FA
BCE76778
3E461584
BE4A499F
BD705075
3E4D1E6D
BE7B2065
BEBA4439
BF3E410D
BF0AA6C4
BE8A477A
3E5AAECF
BDB3E813
3E7C80A9
3E8E4015
BC73D920
3E42812C
3E60721E
BE834E0C
BEAC2088
BE95ED33
3F09AE08
3F06B04C
3EB201FC
BF0C5F4A
BD124097
3E58A044
BEB1F54D
BDA79D1C
BE44EB96
BC84A795
3E675C4B
3D11DC59
3E263F1B
BDA51E1F
BE285928
3A936954
3E790734
3DF29DA4
BC6CCC72
3EB66414
3CA5677E
BCC64EDF
3EC1B82C
BDCED638
BD1655A5
BECBBD79
BE65D4D7
BE0FF18F
3EA3E2F7
3ECE1BCA
BD356316
BE12C41C
3E0FACF1
3DD62B4C
3E36876D
3F046608
BE68AD38
BE52E654
BE06738E
3E2035AA
3E04F2B7
3BAE6AE2
BE1C3697
3D3A825D
3E58633D
BC080A7B
3B350530
BE38C63A
BE6F8805
BDB12A1E
3D57221B
3C9D00E7
BDBA791B
3D4872CE
3C53B43D
BE03A7A6
3E2F3D71
3D826832
3D6A7D3F
BD8E3AE1
3CEA31AD
BC430EDE
BADEA43B
BDB1E597
BE338148
BD6F8020
BDE47421
3C6D9422
BCBBDB93
BE53712B
BD2DACEA
3D99EF41
3E2DE745
3CD1E0BE
BD8702C3
3DA4D9EF
3E1840CB
3DDC3BA8
3D81A466
BDA03EBF
3E3291C2
BDDA39E8
3E0E8172
3D31C6BA
BE4AE3D4
BCF742A7
3D7DA4E9
BE3C26D6
3BB8BB73
BCDB56F4
BD2159AF
3D989E6A
BD9B887A
3D39A6B8
3DF96D4B
BC82A806
3C9C983C
3E1E75BD
BE17C46C
3DB7A520
3CE1389F
3CE70CDA
3E266BC5
3D904786
BD998569
3E170243
3E55F857
3DA867B0
3F26BE79
3E9A91DC
BF019A03
BB170D78
BC34574B
3C6897C4
BF156176
BE67FEC2
BE243163
BD0B906C
3EE36C85
BEE647F9
3EB22A63
BE7F263D
3E539CD8
3C4E1501
BE8A5EA1
BDE49681
BEA83F7A
BDA458D8
3EAF0815
BD3066BB
3E59D2EA
3E8ACDEF
BD85666F
BDE77B56
BE08597F
3C6B431A
BE69BBB0
3DE6C62D
BE5EC0DC
3E2BD266
BDA20C7B
BE89EBF6
BEA83DEE
BB05D56D
3D64180D
BE1065A1
3EE53EC6
3E527E4F
3CAC4D46
BE928326
BD9AB8EC
3EB991B4
3DAD1B5D
BE223339
BE88DC7C
BEB97019
BC8285E7
3E5E98EC
3E719D3C
3E0160FD
3EF781A2
BE6ED3DF
3D0C9470
3EF27CC5
BE8E52C5
3ECBBBA2
BDE9F16F
3E35997A
BEF101D8
BE259360
3DDEC075
BE4BE603
3DF436B5
BEC368EB
3D7488C6
BE3E6E9B
3D60FF54
BDFDA394
3D681E4F
3E118D31
3F15035F
3E0D271C
3E87F71C
BD5585B9
BDED61BF
BE5B6FFE
BE96B4EA
3E6FCE25
BE7E29B0
3DB3095B
BE60CDB9
3DD7742D
BDDC0641
BED713E3
3E0CF45D
3E429515
3EA4D16E
3E5F148A
3E943EFD
BD18AE35
3E2D75E5
3E2E60CB
3DE0DB45
3DA174D4
BE9BD593
BEE79D08
3BBEA6C4
BE367327
BE957DF6
BDBFB331
3DB5E961
BC912537
3DEF6BF1
3E78AAC1
3E68456F
3EF8C8D9
BE30311C
BD836E7B
3E3A46A2
BD309EB1
3E85BD80
3E0398A0
BE52621F
BDB8F332
BE39D2E3
BEBD3B9C
3D9631F7
BC182840
3DCB0876
3DB51448
BEA2D68D
3E333F54
BE7905D0
3E759CEB
BED8945C
3E7F6CAF
BB51CCE7
3E8FD74E
BE9ECBEC
3E0C7804
BD274D6F
3EFE7EB5
BE485D70
3E423122
BE2CEA56
3E4593F9
3DEC448F
BDA36ADC
3D94747D
BE5CA28A
3EC7F098
BEE485B9
BCB6B680
BE449212
3E7A3F5B
3E9A046B
BEB29A21
3E343236
BEB7DD7B
3F0D8A83
3DC33AA5
BDACFF94
3D8B3570
BD2159CD
BE55350F
BD014502
BE4F3C96
3C395E25
3E90EEC6
3E0DBCC1
3D91FEE8
BDA5C557
BE09F497
BEB8AFC0
3E85E5EE
3D93F229
BEB66662
BED9FD96
BEE8D041
3CAA2B3D
3DF100D0
3E19A25E
BD111C7B
3DE12CFC
BF0539E3
BE2B6FBB
3E9A54BE
3E89955E
3E807609
3D810ADE
3DF0F92B
BD677502
3CD0C651
3E5F0F3F
3E71B27A
BE816C52
BE9F7733
3D42118E
BE216F52
3E8E1823
BE15FA9C
3E9BADF8
3AC2239F
3D99B932
BEFF35B4
BE6EFC44
3EC2AC24
BD17A326
BE01BAD2
3D50FDC5
BECA80B7
3DD57B2F
3E901FB9
3EB952C5
3ED38509
BDED7AB9
3EBC5A91
3BF68B68
3EAA8602
BE029796
BDDBFDDD
BD6C963B
BEC5509D
BE2A9388
BED3E32A
BEC6A475
BE558108
3E0CD090
3E601E98
BE401255
BE55463B
3C037436
3E85EEBF
3ECDC949
3EA63FF6
BC6EA11C
3E9B2EA2
3C49D3BA
BBACF25F
3D1BD4C3
BD9F117B
3D42C02E
BC94BBA0
BF332E55
3E612498
3DFC451B
BE3EA819
3E92B30F
BE179618
BE2BE90C
39B50B33
BE5419B4
3E7E0A91
3E50FA0F
BE8C26C4
3D493E60
BDFC76C8
BE8C6EF4
3E74B1B1
BE0E81D1
3E8952DA
3E2CB56B
BE4E0C7D
3D25013F
BE37EB8B
BE0BA2CE
BDB9AE10
3E1C86EE
3E9C94D7
3E51EEAE
BC6624D8
BE7E31C0
BED2D4A9
BE1C7A79
BD20B4B9
3D8D0DF8
BE3C8BC3
3E330441
3E5ABC05
BEB4B3C1
3E917FDA
BEA98E18
3E0279AF
3EAA8191
BCD9103D
3EBA07A8
3E22CF41
BC63947A
BCCDF28C
3E13460A
BE54FE9D
BE76C6BB
BE5A7331
BE1BEB73
3ECD6171
BEB9E87E
3EEC2DCB
3E7CD7EE
3E6BA87E
3E305EBD
BE4BEE3D
3C2A07E6
BE90F8ED
3EBC9E3C
BE306812
3BD26E0C
BE36CCDE
BDAB8AF1
BD7CA34C
BDD0AE6E
3E427DBE
3EA46AB8
BE33E1A1
3D6CAC20
BDBCA876
3E24325D
BE16FEAE
3DAB2D10
3EC76611
BEBC22BE
3E5F4F47
BE02F5BE
3DCF3B21
BEC204C0
BC14B9B6
BE3D04E0
BC125F63
3DFD7DAF
BE2A1E0E
3D0B7AF9
BDB9BA3E
BE032608
BB1AEBE4
3DC30282
BE86318A
3EBA0056
3E7A39C1
3E710A04
3EDFC9B4
BDEBCEBC
BD92D5FB
BE9D3E49
BE7B6773
3EB54D75
BC1BDC1B
BCC237FE
BE545249
BE438CE3
BEC208B7
BE106A4D
BDD121DC
3B224E6A
3E986F29
3DBB474C
3E8E3A19
BEAA42D7
3E0B47A7
3EC5C865
BE013D7E
3CCA0D8E
BE3609C8
BEAD8D35
BCCE1009
BDD7CF61
3E33D7B8
BDCC2CEE
3DA353C2
BD4D0790
3D9799FD
BE927C39
BCEDCAC8
3E800F1A
BE9765C5
BD79C761
BB732F2D
BD41468E
3E682FD2
3E0E700D
BE8030B7
3E53B92D
3DF8B5D3
BEA3F1D7
39422E3F
3DA9B7A2
BD2650E2
3E633C81
BE8DD56E
3EC2EC39
BB9CB73D
BD8E2632
3EB9340E
BD5E856F
3E02F03A
BE5F5D52
3E423F52
BE1CBA99
BE587C8F
BD20C96E
3E56A13E
3C5CB131
3D0B46AB
BDFA3D5F
BE36E937
BDDB5B5F
BD7E3F9E
3DCD00A8
BE00FAC7
3E863EF2
BDE18170
BE291B33
BDA60419
BE07C8E9
3DFF1686
BB8B38D9
BD720208
BD0C7A4C
3E57C0D1
BED3E187
3AD5E57A
3E5385A9
3CFFE284
BCCF3827
3D3465FE
BD15FAA1
BE857F80
BE3227FD
3DD50D43
BD12469F
3E526AF9
3D33C430
BDADB19D
BC643ECF
3E8C612F
3E9176FC
3B9B70DF
BD8FD8B2
3EA4C2D5
3DDF1E22
3E993ACA
BE24D44F
3E58CF00
BCB09163
BEB1DA1A
BE1F99A1
BC9F719A
3D9E456F
3C1D8BED
3E5B326F
3E8F180A
3DD96E76
BE2CBA58
3E40B2FB
BDB9A3E4
BCAA4F3F
3D759853
BDEEB754
3DBFF1C0
BE39AC1C
BDD8E937
3D864953
3E76FBDB
3E3BE143
BD2F968B
3D65AE02
3E7A037F
3DEE5BF7
3E98C686
BABFC629
BE23A566
BE38E3FE
BE84D311
3CCB2619
BE8504AF
BDA216E0
BE1BDD60
3E112D81
3DF64DEA
BE3958B7
3E97F15D
3E13BDB3
3E33F0A6
3E934225
3E9596B3
BD96E486
BE7105D5
BD999231
3E096BC6
BE2C40BD
BE46CA21
BE327DD6
BE0EF9E9
3DBCCDD9
BEB52E41
BDAE0762
3D6DC355
3E092462
3E63F5EC
3E27351C
BCDD3585
3EF375D1
BE39216C
3CED15E8
3E514067
BD946828
3DE64CBB
3DE4954D
BC4FA0E8
3CAB68AF
BE601DA6
BE6F0DD3
3E6D4011
BDBC288C
3DFB8D57
3E972911
BDC5D432
BACC7C45
BE16B78D
BE3B16D9
3E2F62DE
BE96D7C3
3DEB5D62
BE2F4EE5
3A3726F3
BB5E41EA
3C11885E
3D89F818
BD015979
BD394B76
3EB732CD
BDA66BAE
3CAD9ACE
3BBE42B1
BE38DBC8
BE2F86E9
BDE9FE68
3E144C5D
BE0ECC6C
3D97E355
BE3A0CA9
BD00947A
3D86C4BA
BEBD5EDE
3E82DAE2
3DE01D43
3CC868E0
3E52136C
3E9E2E26
BB86A7FA
BE1941A2
3D7D90BA
BC7422FD
3D75D752
BE778767
BE49E7C0
BDD478E5
3DAC70D3
BE7AFE3A
3A9E6835
BADE3987
3D95A814
3E53FAB7
3E37825B
3D3BCABC
3E13AD90
BDA0529E
BCA71A15
3D9050F5
BDB83C5C
3E433C9F
3D75D44D
BD6DEE1A
3D259A59
BE119BB4
BE4B78CF
3D9DDE3F
BDDD0D4F
3DA03CED
3E089ADB
BE80C489
3D8DE46E
3D703763
3CE8E3F5
BE113587
BD84843C
3E278CCD
3DEBC9A4
3D230B7E
BE2C1BDF
BE3D7BF7
BE91964B
BD932569
BC072030
3DABBA30
3D36C89C
BEAE0238
BE110B4C
3E26AA3E
3D8E6028
3D0DD3A0
BE6BD224
BD0E33C5
3E3A23C7
3DA6A29D
BDD3840E
3D806D3A
BDF67323
BDF00853
3E893355
BE75F441
BD7E4BF3
BE52732C
3EB3BA38
3E512333
BDDC6941
BE98DBA1
3EE3AF92
3DFB9C8E
3E0FA053
BE96B0A0
BE2253FF
BE4C03B6
3CFE5195
3DAD825C
BECE7104
BE113C80
3D16FC8E
3E19C99F
BE2D6823
3DA7C5AA
3DC88A3F
BE44F204
BE510209
BE706940
BDCC96BE
3E636B88
BE1EB9A6
BE1F8F55
3E41140F
BE7CCCAB
3E0FD631
BBED3FDF
BD8098D4
3D27852A
BD95F4C3
BE0B266E
BCCD0B7C
3E734A6C
BE643608
3ED93D12
BE59308E
3D63BD9A
BD1D2AA6
BD76B444
3E9985E3
BC8E7F54
BB74E36C
3DA065F3
BB3516A3
3A90FFED
BE8B1E9C
BD9A63BF
BE207BAD
BE47F05A
3E8F8AC6
BE0F9149
3CF1D977
BD922142
3D88F361
3C4BBCC2
BD8DB15A
3E952CCA
3E173714
3EAC7AB4
BE700230
3DB272CF
BDE0B746
BE0AC30B
3DD8BA51
3CE7D00E
BEA1DE51
BE4F0628
BE5F59CB
BBD5763F
3CAA7DA2
BDBC5B67
BD8F3EB7
BDA0FF96
3DE83949
3E5A0516
3E9354B3
3CD1AB29
3D38962C
3E4C5937
BDE5FAD2
3E99058F
BC1A04B9
3E4DBDB3
3DD3D0A3
BD934D9E
BCE1CC6E
BD9453D7
BDA54A13
3ED396AB
3D3953C1
3E508F85
3E7E5A59
BE4A36CD
3E0AC69D
BEA640F0
3D91F9C0
BE262A7F
3E8149B9
BE8D0F09
3EE791FB
BE1B81B8
3E8907CE
BE38B11F
BEABAA46
3E09DBA0
BD1324F6
BE24A807
BCA6FF99
BE6B19CE
3ECBB6B2
3EAD456F
3E561F8E
3EBAB5CE
BE4566F6
3E892AE7
3DF87F6E
3DDA736D
BC950AEA
BC016B50
3DFD0C84
BE4520F4
BDF5FF9E
BF1941F1
BDCD0B54
BE9182A3
3E1FEEA0
BDEB60B4
BE3165C5
BE2E8225
3E925A81
3EBA5B7E
3ECEBCEF
3E26B6A1
3DF0A10A
3E771C7A
BE130BBF
3DF16C5C
BD29C27C
BDEA3D14
BE55BECE
BDF9F854
BE967AC3
BDDE4A6B
3DC8C90E
BEE7CF97
3E526783
BE695C23
BD7BAE52
3E9EDAC8
3C1687EC
3E781E0B
3E2E2414
BEE76CDD
BE131A07
BED7FAB7
BEF6BD0F
3EC5F522
BE12B722
3EBEBB4E
BE403FDC
3E81E2D8
BDE433C4
3E4E27CB
BDBEE329
3E3FE78F
BE661958
BD00B110
3D897685
3DFACF02
3EC56B50
3E7E7DDE
3E6A6F36
BE140159
BE79AF50
BE67B3B1
BDE9EEA6
BEF98E25
3D8D9315
BE5634F7
3E89A1E9
3DC8FE61
BD99E628
BE3B09E2
BEB233F7
BE267210
3E5186E1
3E9AB898
BE4A53B6
3E6250EC
3E6DB2C6
3E6D2245
BDAB3592
BE8072AD
3DCB0CFC
BED3FDE7
BE5BDB4D
BE5886F5
BDDAEF2C
BE608812
BCD6DE99
3DE3C768
BEE0275E
3E4B7A36
3DC6399B
BD385775
3D7FC78B
3E1BC84B
3E0E1900
BCBB9786
BE8B1980
BD8F0FA4
BDBF8C8D
BDC37465
BDAC595A
BE2AF826
3DBC5F58
BDFD7274
BD83F06A
3E6CB1FA
3EB77FA2
3B1023A4
BC99D9CB
BB3A3068
BD4F124C
3EC156C3
3D0CF42A
3EEC55F6
BD07940B
3E5163BD
BE8C5F76
BEBE753E
BE01599A
3DBBFB32
3D88EE18
3DBB7CAC
BDF20FBC
BEEFF84A
BEC042D4
3E0DC839
3CF23908
BE4F41DD
3D7E26A4
BABE95D2
3CEEBF05
BD074BC4
BEAD38B8
3E62CAA4
BE8C9055
BE431B15
3D9379B1
3E0FBC1C
BF18DD22
BE0EF29D
3F0D7E03
3E917B88
BE57B0AC
BE237C6B
3EA75C06
BEAB025A
BE1956A3
BE031FD3
BEADFD37
3E8A1AE4
3D657D12
BCB05F39
BE9F0D70
3E0B466C
3E274867
3E09468C
BE8D474F
3EF7C8D6
3CB4E12E
BDBA243A
BEB52514
3D7FFC6F
BD7B5ED9
BD8BD8CD
BE9C7D67
BDA608B6
3E4D55ED
BD418058
3EF51B35
3E9F6787
3E7A6E2B
3E006DF3
3DA09982
BE6B96E3
BE002CAB
3EB96E00
3CE2B943
BE33DAAB
BCDD1C8B
3E91B12C
3D0CE8A9
BE80BC3D
BEF745B9
3E861981
BE761F43
BDF27600
BE6EC000
BF108B20
3D885549
BCB58A61
3E4AF58A
3D3221D3
3DF795BE
BE2BE8B1
3D612C63
3CE61CCA
BEABA4BA
3E849491
BE15A800
3CAE40C0
BEE1468B
BD7636A3
BE114972
BE12FDA3
3ECEE157
3E7FA914
BD8D4E23
BDB0B152
3E2D967C
BEAA6AEB
3E413CBC
3DDC3A21
3C885B23
3E503D59
3DEA309B
3B91E1D5
BDB2C1EF
3E6D34EF
3EA0B59B
3E46692F
BEBDEC2E
3E1EA2FB
3D76F3F3
BCC5AA9F
BD28597E
3E008851
BE08F39C
BDAA4C0B
BE8CCDEF
BDE4B947
3D812F74
BE6C3962
3E8B7078
BCB447FB
BE77FCB1
3D82891B
3DADE7F0
3EBFAF79
3E5D0576
BE58DAB9
BE149441
BDAE1352
3C80F878
3DD717F7
BCE54E43
3EECBE13
3D4EA5F6
BE6F206E
BEDB4F35
BEC2741E
BED351F0
BD1A9AAE
BE0EF0D5
3D9CFDE8
3DC433AF
BDD175B5
BEDC7577
3DFBD9EF
3D0528AC
BD07294F
3E34AB33
3E6C5041
3ED9F120
3E732E94
BDA8FB21
BD65A3E1
3E6100EF
BEDBE1DD
3C90309F
BDC508BE
BEA891AF
3E6E8976
BD8D9796
3ED16C67
3E4187F9
BEB0FDD6
3BBFA196
BEE310E9
3E56E606
BDC3F82A
BDC3C633
BEFE68DD
3CC5C10A
3DB8633E
3E7E86E9
BD00E337
BDB41706
BE3D58F7
3D688A50
BE990353
3DDFFE88
3E2AC981
3E55255A
BEC56A22
3E38D830
3E95A34C
3E0BCAA9
3E230E74
BD69BF4C
BC8EA86A
BEA495CF
BE7E6FF9
BE0E986D
3C915EFD
BE3022F8
3D379426
BE0326D9
3E8EAB80
BD862F13
BE2329E8
BE110264
3E74A108
3E016EA0
3E4C87A8
BC4383EF
BEF92EBF
3DD8B736
BD0A7580
3D5A9F12
BDFA38AC
BD7341DB
BDDC1F3A
3E5936D1
3E2276FA
3D23D930
BD88A42A
BDF19788
3D462018
3D6B6614
BD42A203
BB2FBD4E
B9C39DBE
3E99653B
3E8A9AFF
BE7E5C73
BE29307F
3E510805
BD24FF5B
3DC1ED3A
BDFC91BD
BD9D71E2
BE4B36A5
3DBFA393
BE17E2B5
BEBBFDE2
3DA6ECBC
3EAE1535
3E53942A
BE814CCF
3DF47BA4
3E5AFFF1
BC7CEF4F
BDF2511A
BDF3F381
BE2A624A
3DC04E06
BE9C7CFA
BE90AF8E
3DE9CA98
BE565486
BDE8AFE5
3E662AD3
BD7E2DA3
BD87C186
BE116662
3DCFF570
3E3EDB20
BE48784A
3E303223
3F0D7C8A
3EC9F4ED
BEF3873F
BDA8F5B1
3E94F39A
3E54B010
BF390760
BE9B3C6A
BE6A38F2
BD42BF27
3F0307B0
BEC3A7F4
3E7CE568
BE8E6EA3
3D824957
BE1E1DE1
BE18D089
BCDC2AF9
BE87DB14
BE2DE801
3E937839
3E624155
3E28EDF7
3EB7BEA0
BE17054D
3DFBAA05
BE49878C
BD0C7081
BE7F8BD1
3D4D7C0A
BE27F42D
3DF9483B
3E4FED42
BE4CDF38
BF161971
3CEDCC97
BD997F9B
BE8A8F5A
3EABDB52
3CE7EF93
BE730137
BF0921D7
BE37AAE8
3EE96726
3D9E6CF8
BD435ED2
BF11E2C0
BEB2A379
BE39A2DF
3E00F9B0
3E837623
3EE51D21
3E96F71F
BCEF0CA3
3E51C15D
3EC98ED0
BED9B6E0
3D6D0B0B
3D76EE1E
3CD6FD02
BF018EE1
BD8EC103
3E51E54B
BE473B21
3E8A8382
BE5DBFDD
BCEC9E09
BDC7BBC9
BE8A0775
3E7A6A28
3EA8A234
3EB44C0A
3EE432F7
3E89DEDE
3E6C4EFA
BDAE5A6A
3B8B31A2
BE678DF8
3E8CE2A8
3EC71E87
BC526FE4
BDC64408
BC56EE6F
3DC5CC4E
BEC40660
BEFA39A8
3D2D2565
3E95A083
3E82C2A5
BEDB36F0
3E75BF22
BE793ABE
3DC7DDFB
3E7B944E
3DDEFA35
BE7D44BC
BDE46368
BECF7A44
3F110353
BE1DC10B
3DC1CF2C
BE7A5D31
BC13EFF7
3E14D2BC
3E901CC2
3E674D99
BCE4EA35
BC74BCC0
3E416903
BE6358B0
3F09C256
3E8148EA
3E05C5B9
BD29C6A6
BE4E3D5D
BE99BBDF
3E37D92A
BD5750AF
3E3DDC1D
BB8F86B1
3E945D0E
3EAD2E45
BDAE441D
3E031041
BDA953B1
BE1A9EC1
3E75A883
BD9C3723
3E438D40
3D50E33A
BDFBAAE2
BD81F6D4
3E3825C3
BC66CFD8
BE356E7D
BD16DC0D
BDE3E197
BD6D40FE
3D8B9650
BCDA80C0
BCE024DE
BE08A68B
BE79EABA
3CA3727B
BE406953
3E1AFC86
BE20A9C6
BE1BE0B7
3E4F8E35
3D66EE2B
3DB1E565
BCBE0C75
3DC3B5D5
3E0B920D
3DA24B4C
3D3FC814
BDBB8959
3DF4DF0C
BE843223
3DAEF58C
BE0CCECB
BDD8F511
BEDE718B
3DD0F425
BE3CE572
BDFEEE5A
3E45BA78
BE700384
3E80E753
BDFA663C
3D7EB0C3
3DAEA4C9
BDBBB957
3E08E7A7
BEBD65DD
BE92E16B
3C882233
3E26738F
3E3051C2
3DE24F14
3E0EDD0D
BDAE9FE7
3C3EF000
3D911C36
BE2E17A2
BC0F9198
BE09FF26
3E2B8672
BE0C12E2
3CE09854
3EA5A3AC
3DD93DB5
3E0F153D
3D048F0E
BE0EA03E
3DE7599B
BF052CAE
BEB05A85
3D4A9F77
BBBB7B13
3EAA20F6
3E26E70A
BC9D9F60
3E1E2236
3E4BDA28
3D9DE462
3EFBB464
3ED606C5
BDC7E2CF
BDBC095D
3CC5FFCD
BDDBB05E
3990D268
BED29183
BD8E601C
BE1BEB40
BEAF2341
BE34EAD5
3D33DD8A
3D314911
3E580509
3E3C5841
BE47AA2D
3E539CAF
BE86E73C
BDDF214D
3EE0A642
BDB81C4D
3F032D3E
BE288A13
3DB52F8C
3E13FFF1
3DF5673C
3E3D303B
3DAFDAEC
BEA42E9F
3E1A4674
BCD04523
3CD8C02B
BD7E4C28
3DEDDD81
3D74E40C
BE0C41DF
BEA1CBE2
3F01506F
BDDE13FC
BEF816F8
3E2A05B7
BE737775
3D9BD92A
BC66C190
3E95F10F
3E922B38
BDC4278D
3E13791E
3CF25ACB
BCEAAB85
BDE4F2E9
3E2FA410
BCBF40D8
BE096DF1
BDA6D87B
3EAD36F0
3E37E09A
3D1F162B
3D0313EE
BF044128
BE0DFDD1
BC7BD127
3C4B90ED
BE5ED57E
BDC90DB4
BE489BBC
3E9D375C
3EA6F3ED
BD33B3B7
BCF8E72D
BE9BB569
BE178D92
3E6B4F54
BD0F2994
BE612F8A
3E3A56EC
3EAE817B
3D0352F6
BE8EE9CB
BE338571
3E40CD23
BE0CCC59
3E53660F
BDC722A5
BBBC641F
BE978758
3D819807
BD7C76FF
BED29054
3D9F5109
3E429884
BD22FC4F
BE8754B4
3E870780
3E60B9D1
BE03B1ED
BE3BDB33
BE89DB20
BE7C0475
3D2E3C3E
BD4A413F
BE9BA5CD
3E3C35F1
BD89A37C
BE65E6DB
3E7D1975
3DF32C5E
3D7D5B15
BDB88ED5
3E183047
BCCAAEAA
3E391AFA
BE8B004C
3E338DEA
BE841985
3E416466
BE6290E5
3D05B414
3E9C4384
3DC614F4
3EAE3B36
3E3DA879
3E36CBBD
BE13897C
BEB25698
BE837973
BDEA8573
BECF430A
3D39BB30
BE6B4745
BD511F78
3DFF688B
3E09AD76
BE5E765B
BDCCDBCE
BDA2E33C
3EAE21BC
3EF7D6C6
BE30DBE7
3E3B6F74
3CCE9CD1
3DE32F62
BDE41497
3CA2AC22
BD37BD00
BE4D2884
BE273DFC
BD15C6A1
BE0A8B66
BE9E5BBA
BD03AC32
BCC6C053
BEAA0296
3DDD2D99
BD53C021
BDF7F5EA
3E4296B7
3DD3FCD7
3B5F4042
3EC06CAA
BDDF62C4
BD9DBE57
BD742271
BDD1DEC8
3DAC5B6A
BEA6440D
3D207602
3EAEF459
BDB9FD4E
3F019E12
3E8C9AF6
BDD5B055
3D39EAE3
BEBB45BC
3C18B5AE
3DC38518
BDF1980A
3DB46997
BC87CA3F
BD24E888
BE0D0FB0
3EB04D18
3F01C6AF
BE8E9691
BE61AFD2
BEEFEA20
BE397345
BCB212F8
BEB6712C
BE9B9A70
BDEBADFD
BE86D892
BE92FB58
BE294A28
3CF22E61
BD61D481
3CF6FB5F
3D55264D
3E7FE25B
3D13BE53
3EA36FCD
3EB5950B
BD1D6A8A
BCEB6AC2
3C8A8A3D
BEC053D3
BDBDF583
3CA973A2
BEA86F56
BD8EB2DB
3D10B1F1
BEA4356D
3DC53CC7
BEDAB489
3DFD8C8B
BD0F678F
BD1C3AEF
3C5E6D74
BE63D9BB
BE5BAFE2
3E45F360
3E1E53C3
BD14A330
BC5CDAED
BE2EFA47
BDC4584F
3D693A7F
BB8305C4
3E820B81
BE02F4ED
3E441AAB
3F02C0EE
BE359FB3
3E5249B2
3E6CB0CE
BE12522C
BE5B50DE
BECDF802
BE19CCE5
3EA3F1D1
BDB151F1
BE1CFA3E
BC1CCA26
3D642E1D
3D36D504
BE0E2D57
BE571CDC
3DA2F5CD
3D6EE893
3D92E567
BD2170A9
BDAF465B
BCC38B35
3BF3B6C6
BD4E8051
BE83933C
3E886DF9
BE18EC85
3C1B643F
BE33D765
BE8032BA
3E13FFD1
BD891E42
3E114D33
BE9506E8
3DC4EBAC
BD3522CF
3DDD3442
3DE5BDEE
3DDC6368
3C11052B
BCDAC74C
3DDDEE78
BE945C23
BE10F079
BDED5904
BD8A9BF8
3E2CBE2F
3CE00442
BDA3A4DF
BD7770DD
3E966D20
3DB13592
3E2E102F
BDCAF06D
BD1706D2
BD3201E0
BDAB0C82
BE124568
3DD55C86
3D24E103
BE22B00F
BE66C097
3C73787D
BD2EC7FA
BDDE21CB
3E125657
BDD67EC9
BD27F969
BDB12CB9
3E739C1D
3DFF4377
3D6A6031
3E37B704
3E1F39D9
BE09CCEC
3D937479
BDBDD1C4
3E87DC6E
BDA10945
BEE22F59
3D6FA804
BF1B0CBC
BEC45E9D
BEB4D6C8
BDDFD14F
3EC5D683
3EC3A946
3EEA80F7
3EC62009
3DC8FA60
3E027ED4
BE87A90A
BE036961
BDE442B8
3EB4F124
3ECC20DB
3E82AB6F
BF2EE1BC
BED5ED40
3CF61109
BED74DB6
3CF6FB2F
BD040CBA
BDD510CE
3E80DB33
3CDE649F
3E8E9081
3E6736CD
3E2E1441
3E78AC9D
3EEEE2BB
3CD27DA1
BD4B9F5B
3F07FEA1
3BD635ED
3DC46054
3E8A1569
BE40FC12
BE0C1799
BDD94C5A
BE5C8D19
3D9DADB4
3E8BD1C6
3D89A896
BE2178BB
BE1A56C6
3E4B4664
3DF74079
BE3435F5
3E56085C
BEB01A30
BEF170FF
3D3C691D
3D4E5657
3EB32EC8
BE8E4CA5
3E437A6D
BEB5823B
3E7273CA
BE3515A0
3D9191D7
BDA08A70
3EA98A10
3D748B8B
BE349449
3D9D2958
3EB643CE
BE459FCD
BDFA643B
BE99DB45
BDA574AB
BE84E5D3
BF143683
3BA3F66A
BEFA3BD3
3E71FA62
BE4E51DD
BDE197A2
3E3DC73E
BED1F5C5
3E2FCFF8
3E882584
3D26E966
3E411E46
3E86D499
3E650825
BDEA067B
BC8F9600
BDCDC4CF
3E9D4CB0
BEE9F1B2
BE588451
BF1CE4E3
BDD450BA
BF1BE7C6
3E310AEE
3D975F31
BEAEE1E4
3E2B0C28
3E1454DF
3DA8A65F
3EBCC87D
BDDAEFC8
3E5FD2BD
BE82A11B
BECEDF8E
BD51588D
BDC9F5E5
3DC832E0
3D417053
BEDDB72C
BE21AA92
3DA620BE
3D7959BB
3C5712E1
3E2C4C86
BE990368
3CA32E5E
BE4434B3
BD3740FA
BD3B5DE2
BE052805
3F06954C
BE282EA0
3C8F1993
BE798DD2
BEC2A02D
3EE26255
3E69748B
3F45A8AE
3F06CE97
3F0FCD05
3E9F68E3
BE90586B
BE356187
BEEB31A1
3DF399A4
3F00780C
BE01142A
3DB9BF2A
3DC27C9E
BC7EF80D
BF28A8CC
BF2A4A6E
BE0AE1DD
3F048B64
3E6FE445
BEC1EF48
3F060AE0
BDCE43A8
3E8A91AA
3EC30C39
BE694CA7
3D1BA8D8
BE868657
BF034B56
3EBC8441
BE905209
3E156947
BE7A5291
3E9AE590
BE25868D
3E6405F5
BD13C99E
BE92016B
3D8BE344
3E36B13D
BDBAB9E8
3EC9057D
3DB9999B
3D7B1B9D
BBFD9989
BE009132
BDA16BEF
3D8CC96E
BE8B6EC9
BE3FF9D4
BDDDEA0F
3E16BF8E
3EEFE3DF
BD94ED71
3E625011
BE4A7C48
3DBAEAAA
3D188B01
3E23E87D
BDE1F7EF
3EA6F497
BD1CA59B
3E58D4E2
BE38ADE3
BBD3B407
3E2436DA
3EB81F3A
BD0E024C
3D815C1D
BEB630E9
3E34C12A
3D86720B
BDBD89AF
3DF12AB4
BE83E893
BD1A17F4
3E88C6DF
3EA0BBA0
BA8DAF00
BE9C063A
BE2CE064
BEF851C6
3E5EBBBF
BEBAB59F
3C6DF9E3
3D822A03
3E921C47
BE1E5BAA
BE117D77
BEC66D10
3E74D8BC
BDE5DBD3
3E45D314
BDF4E42C
3E04DC88
BE3C51EC
BE2B4EE6
3DEA2224
BEEAF5D0
3DA6071C
BE34ED39
BE514FFC
BE369A59
3D85033E
3ECFB6A8
BED2AD7B
BDADE9D2
BED94DDA
BE8F4702
3E870345
3DBDD716
BCA45433
3E421D77
BEFF0E2B
BEB372D9
BE2270A5
BDDC6FED
3E8239E0
BDEFDD60
3E2DBA1E
3E1277E5
BE6F5037
3E842A18
BEF45B34
3DA8B2E1
BDAB08CD
3E900BF6
3D0D1E5E
BE446408
3E880ACC
3CEEFF39
BDF2BD39
BE121835
BE956256
3F136424
3E4BDF56
3EB96F76
3E1E39B8
BEBAE580
3D5E6240
3919C26E
3EAFFC02
3E90D208
BE111F90
3E1F7227
BE8F52C1
BDFCA296
BEE281C3
3DB23E84
BE5B820D
3E4C4BF4
BD113174
BE6FA014
3D097320
3DA805B3
3E213CDD
3EA84978
3E0D3FD9
3E6E1F18
BD020A95
3E0000C9
BE231C96
3C117830
BDF935B1
BD916693
BE4BDD1A
BEBFFE9D
BE0C3704
3EAEF732
BE1B83D6
3E737E63
BE9D0813
BEA37B68
3E231874
3D0CF3CC
3C65C312
3DB98549
BEAD47C8
BE8CFB1A
BDE97C3E
BED70199
3EADD925
BE8CF9AC
3EA8EAA7
BCC4A7AA
3E72BB54
3E6D5765
3EEA7833
3E70122D
BEB2D70D
BDFEC171
BDC90A4D
3DC67E44
BDB4AC8C
BEC870A0
BEEB76E0
BE6D8407
3D2E9E66
BEAE38FE
3EB064C4
3DF0136E
3ED2D1CE
3D8EEF14
3C5B6226
BE1E73F5
3C41AAA5
BE0862B0
3DF405AA
3DEC4C7A
BDEFA0AF
3E01D8A5
BE131A0A
BF096D3F
BE6807E3
BE0C74D1
BE850D2C
BD4B1268
BE06D79D
BE2DBA35
3DADCAF3
3E160425
3DE07280
3CE243C2
3EB675F7
BD1DFEB6
3C0BA092
3EB00F4D
3E07DA98
BE966B74
BE89173F
BDC7B7B5
3EBCF14F
BDA5121B
BE6F5F2C
BE3CB078
3D045E46
3C0EEA08
3D8FB024
BC50422D
3F0F066F
3D4DCD45
3E027787
3ED2BA82
BE3293ED
3E0EEA83
3E78FCFE
BDE4F3FF
BE9C0E65
3E85EA00
BEF0F5CE
BCF1B49E
BE7C0D8B
3E3D2C04
BE2CA197
3DA93A58
3E122845
3EB783A7
3D116E7A
3DA85D97
BE15667A
3E5EB89E
3E573616
3DD0407E
BDD294FD
BE0CF6A7
3DB63B1C
BE21B94F
3E0321C7
BC8B3B71
3E1997A0
3ED35FE8
BECB195F
3E92ECB6
BD81A39A
3EA8D636
3D754D0B
3E352BE1
3BF743ED
BEAB3EC8
BE968935
BB57387F
3D82D59E
BEABE1FC
3ED7C426
3D32E41F
3E0C70D1
3E25AC53
BE939906
BDE1E9C1
BCB931E0
3DB7918A
BE702C99
BEB28714
BE53DC9D
BD9036BD
BE5746E1
BD96B3D3
B9A68FE6
3E62541D
BEA19AEE
3D0B10E4
3E4CBA76
3EB93A37
BC672923
3DFFA019
3E5AF47B
BEFBEA04
3DBFF21E
BDA4F037
3E15D469
BEA87570
BE05FC14
3C0868FA
3C74485C
3C0DD784
BC2BA987
3CA35FFC
BD5F5FFA
3D963206
3EABD727
BE04F40E
BE9DEE02
BEAD359F
BE5E3079
BE8D3694
3E22D366
BD553B94
3D91429A
BDA6E3A6
BE0337A6
BDFE8568
BE5E7D7F
3C8EBC51
BE45B7CF
3DCBBBD0
3EDCA349
3E6661D8
3E752581
3D3ABCD5
BCA6EEFD
3EB47435
BE4C83F9
3E25CD75
BEB20098
3CC7F8B2
3CE781CF
3E23C52B
BDFBAA2D
3D637F0E
BED39B08
3B1F5B7A
BE991539
3D91AAA2
3DB61678
BDEDC03E
BDDEA435
BC9FD614
3D9D5411
3E77F9C3
BD5E9504
3D1CE91D
BEC269E2
BE5C897C
BDDC0684
3DA85EF3
3D3B35A1
3E6BA814
BD1C30BE
BDABB916
3D15CC5D
3D931F3A
BE2B1A78
BD758CB5
BE0E6A9A
BD3DE1D3
BE1B561D
3CF62363
3C310922
BE4BC13F
BCEDAC61
BD472EC0
BC80C106
3D993A90
3EE926B8
3D2FA8D5
BDA6B1B8
BE8B0662
BE80BB9C
BEA62BBA
BE4B470C
BDBA27BF
BD0BDBD9
3C87E207
BED54229
BECAF94C
BE2DCEBF
3D93B4DE
3D4FB580
3D40E1DA
3EE2F6ED
3E7123E0
3D9B1256
BD33A653
3D94EA69
3E52A8A7
BE3FCE25
3E46F450
BE9F7EA9
BE593C10
3D88E86F
BC7A83F5
3CFD6B10
3E0EE9E9
BEF77601
3E1A0EBE
BF01341B
3E4AFA28
BDBF6284
BE3E370E
BD8FA327
BC3A002C
3D5EC235
3E3F2A36
3DC9F6D0
3E0F90CD
BE83A71D
BE06C0E2
BE140814
BE1A3AD1
3E24FDCF
3E559F4F
BEDD652F
3E2D6BB5
3E6BC9ED
3DB37AC3
3E36F3DD
3DEC5283
BD419ADD
BEB547C2
BE8F016B
3CDDCF59
BE0627B9
BDB56BBA
BE65C795
3E04C65F
BD44FD86
3E90BC91
3E64840F
3DDB2C0F
3D610902
BE0A6EA4
BE792985
BE4DA986
BDAAA506
3E08B25F
BCF9D509
3DCCAB20
3DC1412B
BED60224
3DDE8782
BE25C565
3E45AB37
3E5B6ED8
3BD23369
3EB196D4
3D83CBEA
3CA2439C
BDC6F443
3E44E7B0
BE1377DE
3CBB3E55
BE8FCA40
BDE5F824
3D59445C
BD6F16AE
3E9EAEBD
3E8F4C5A
BDA9AEB5
3E52CE02
BE45FACE
BC291771
BE594E14
3D8A99DA
BE51D2F6
BE0150BB
BE2C43B8
BE083B74
BE1DBB20
3D8D8941
BDD4A09D
3E0C03FC
BE8BE4CA
BC2A861B
3DDC50AD
3DE744D2
BE20ECF3
3E4C8936
3E7AA8F9
BEC13660
3D95C7A8
BE93004D
3E15D686
BEDA9504
3E049A6E
BE35BEF5
3E99974D
BDF779E7
3DFA3D42
BEA9B933
3E807641
BD749195
3EA679ED
3DF5172D
BE91A744
BD4A9382
BCF7EB2E
BDEF75AD
3D605D25
BE4FCA24
BDE1F7ED
BE02CA73
BEFE3525
BDB2730A
BE6AC9D1
3C9231AB
BE466520
BDCB85E9
3EC0248B
3DBD3CA0
3D505372
BE26BC92
3E910247
3E4C8809
3D1DFF85
3E598F9D
BD2C5018
3DCBF662
3D89784B
BC9A3281
BEC9E5A4
BE7A8837
BEB38A25
BD52B4B0
BE6EFB56
3E104462
3D334562
BE8A358E
3DDD8313
3DC7461D
BD79D1A8
3ED1B126
3D067C4B
3DB62E02
3B42B36E
BEC635C1
3E288F32
3D691E09
BB9AA5B3
3E206AE4
BEBEE50E
BCD53F22
3E3CDBEC
3DD03EC6
3D77B2F7
3E172E87
BE92DA02
3D689753
BE17BCD4
BE1B087C
3EBB2C81
3BCA33D6
3F12A512
3BAE72C5
BA25CF07
BDED6ADF
BE545EAB
3A86EE46
3D97A7D7
3D290BA2
3E957879
3D037380
BDE0D9CA
BED052E4
BD070245
BDFE18F8
BDD9B058
3E788746
BE10F0E0
3E45BDD2
BB47DDA5
BE5D096C
3C2852FB
BE93EC2D
BB91176A
3E08F0FA
3DE8C01F
BEC25F5A
3E7BD9F4
BCD65329
3DE36F28
3DB84D35
BE485A41
3D7C3E5D
BE54A6CB
BE86033E
BDF58615
BE44D0D3
3D054C83
BE13D321
3DE4FA92
BE5F972F
3E0D00AE
3E6DC1D1
3D50C2A6
3D34607D
3E5A02C8
BD50FCB0
3D370723
BE214655
3D4D8D6C
3D96622D
BA5FE5AE
BE1583A1
3DABE06E
3C31C8BA
BD48185A
3E1608E9
BCC40A76
3EAF5ECD
BCD18081
3E1975C0
BE6B7E43
3DCA7ACC
BCDA696E
3D8A20B7
BE2A0D22
3E465B58
3D7BB512
3E2CAE14
BDDAC4CE
3CE846E1
3E8B5C4B
BC7FC6CA
BEE841F0
BDECEE8F
BF0FDF9A
BC46E5D8
BD252358
3E53159D
BCEAEEAC
BEA04891
3DA3DAD7
3E3B2C41
3ECF1E3E
3E0A7BF8
BE2B35DC
3E167C2A
BE9C296C
3C6B5A36
BE1BBB46
BE104AB2
BDC01B4E
3E867189
BE0FEDD6
BEBC794E
BE1DADE7
BD7935BC
3E55ABC7
3EBFF9BF
BD460D38
3E3D96D3
BE742292
3C4354D4
BDC3618B
BEAC23E3
3C2603EB
3CA9D389
BDFFECC2
BF141AAE
3DDB542B
3E9840F5
BE1E5499
3D823553
BECA61B1
BE942338
3E365BCF
3D048DDC
BE80F8B5
3EDF267F
BC3151D2
BEB85384
3E85CFEB
BE7DD0B9
3E66D355
BEBB2978
3E8EC5D3
BD9EFB9E
3E713571
BCE431C9
BE6911D9
BE4D4CE4
3EC27452
BDFF43F5
3AA76509
BE946BB8
3E819FB4
BE772275
3D74AC47
BDB17390
BEBF5FAE
BD394F2C
BDBB5B1B
3E64579E
BDFFEA76
3E75978D
3E2F557E
BDC6E431
BC27AA13
BE7465B0
3E706B64
3DD3C820
3DD6DAAF
BEF4EC5E
3DF3CAB3
BDE0244C
BCA1E8D3
3E143B2E
3E23B1F8
BB591280
3E4EF263
3D116205
BD6A2C7F
BD855A55
3A98376F
BD911756
3E3C6052
3EA43764
BE5C4EF4
3CB98F73
3E1F4FCF
3EC1C269
3E9F38EB
BE8FDBDC
3D9C58C4
BE5E7063
3E203DED
3E35DB48
3E9BBBFF
3D704F15
BEC59CD9
BEA30650
BDEA917A
3D2FE73E
3D4FAAF6
3D156646
3E9A3F3A
BDBBED75
BE3508C6
3DA512DC
3E8B5BB6
3D1B2F87
BE52DC54
3D0C4A6B
BE46E0A8
BCC43187
3D9EFD83
BE4314EA
3DD41106
BD8A379D
BDE461F6
3CE9D786
3A542ADC
3D9C8217
3E9065D0
3D5176E4
BE2DF10E
3D695601
BE332159
3D8ED382
3E9609C7
BBC0DF14
BE8DB45D
3C9488D2
BC9988E7
3DE34777
3E4A2015
BE9D642A
3E53AD7A
3E99E850
BE02A81B
BE982F4B
3E027E84
3E81C615
3EB7BD15
BE0C365B
3DD3ACA1
BE343AB8
3E2CE334
BABEDF62
392A0884
3DC4F3E2
BE4A51E4
3EB3FBC4
BE130B4C
3D56E355
3E73CF69
3E65BE7E
BE803B04
BEB8D32E
3E7E77FC
3CD4F51A
3E9FBDAE
3E6E4D7E
BE5E6B8A
3BC6A980
BDB6C39C
BD978B92
3E12A7FD
3D0F69C1
3BBC4AA8
BD833EBF
BE60D66A
3D9A5A2F
BDB3ECED
3E05CD96
BEBE9C99
3D864732
BE8E8517
BDA53F3A
3D1EDA76
BC4B04AB
3EA023ED
BBC1DB57
3C5DD24E
BE5CDCCC
BEA63D6C
BE803961
BD7332E0
3E7530E6
BDD41B3F
3D818522
3D6F1326
BED0FC93
3E9A3768
BDE0CB35
3E146884
3E9D0EBF
BD6D1509
3E96DC98
3D16C383
BE20A70E
BD958B3B
3E99E4D5
BE64697D
BDBE88A0
3C05EC53
BE522EE5
3EAE7B6A
BE333E8A
3EF378CE
3E3D0F82
3DBAD35F
3E1F4232
BE0D902B
3E3C2E19
BE122D82
3E43C689
BEC6CA3A
BD10949B
BCC0DA50
BDF0FFC3
BE526BE7
BE63358B
3D2166F0
3DBDDE1A
BDC24334
3DD2FFA3
BC8AC820
3E39E51C
BE8B9BC1
3CDD55E7
3E8C9D4F
BE7C11CB
3DB9054D
BE8D05C1
BD989313
BE06252B
3D1AC711
3D736E21
BB8541B3
3DCAD99B
3DAD4CDE
3E2BAEC1
BE486033
3E506A1E
BEEF37EF
BE3F75C0
3DDEAA42
3E0D0D37
3E54542F
3EA0FE8B
3E4FEE75
3E6443CA
3E8CF550
3DA1DDE2
3F304EF5
3E8309EE
BC107375
BD808174
BCEC6DA7
3DDA6160
BE6E2DCE
BEA084DE
BE3859F2
BC46E329
BEECDF6F
BE692C4A
3D9E11DE
BC0A166F
BAF07299
3CE6E29D
BE76CB9C
3DE49F22
BD82E59A
BD6BA499
3EAB6FE7
3E09280A
3E89BCD6
BE896DA5
3E186171
3E39FBCA
3E5D2D00
BC210178
BE080795
BD0950D1
BE1AF5AE
3C01C1B7
BC76ED27
3E3F6CA6
BDCF34B8
BCD4E9B2
3C892B37
BCDF840A
3F031697
BE7D8B71
BED51845
3D0DB5E1
BE64E688
BDDBD3A9
3E5192F0
3E0E38EE
3EA1E2B7
3E62BE59
BECEEED7
3E18DFE2
BE8E47E4
3E39E57E
3AED585E
3E1D2A1A
BE3EEB22
BE8CCB09
3E674E7F
BBC9B9C8
3DE2A74A
3DD983FD
BD3954EE
3E959CBF
3E458C7D
3E9B14F7
3F13AAF8
BE800DC4
3E9A2E88
BDAE44D0
3E5F05E6
BAC46AA9
BE58521A
3B1A2C67
BD8E0264
BDDDB0B1
BEA71325
BDAB8E98
BE77EC6B
BD5FB006
3E5C5BBC
BC65C679
3DD15D19
3E0602E7
3E8D1A9B
3DED0001
3EC8A804
BDFCCDCA
3EB2B2DE
BD0B04E1
BCBEAB51
3E94ADFB
BEC2AAA4
3BB46DC6
BCEE561A
BE2AB448
BE1C70DD
BE089B18
3E1A4E65
3E8F4296
BD8BEE11
BE024CC6
BCFF5A59
3CDFEA9C
3E7D8D9D
BCBA78ED
BEC0268A
BC646DF3
BE043C6C
BE901EEE
3E1342B6
3D95D79F
3E5D10FB
3E0883C4
BDB59930
3D056E49
3E627543
3E89B9BF
BE0250F4
BDE978C2
BEDD7D8B
BDCBCF5C
3CF39650
3DF04106
3DFC0C92
3E6A1E27
BDD9D008
3D90401C
3D934B06
BDB62325
3E5D60C9
BD036109
3D2A4104
3DCD7A16
BD0738EF
BE59D166
BE261EE5
BE49C183
BE9B9A54
3DD8E6C5
BE7850B5
BE906AF6
BCDAC11C
BBD60B3A
3E46948D
3DD09A1F
BE8F56F0
3E581679
3E1E03F8
3DD3B5AD
3E15E49E
BDC2CB50
3E9FBDB2
BE5D7AA4
3E66DF11
BDDE1096
BE2BA8C3
BE024CEC
BDC58772
BE66BFEE
3D92E2BF
BD908613
BDEDCBFD
BD016A33
3CBB6663
3C47FD25
3E2F2509
BE50B1B3
3E990C6D
3E215D2D
BE96DC5F
3E2C5D1B
BE4F4953
BD4D3F03
3E6BEACC
3D537FF5
3DB8F496
BED5C12C
3ECC6847
BEE38FDD
3E773F0F
BEC9585A
3DCDCB64
BCC252E1
BCF29046
BECBFF9A
BC794A59
BD433C88
3F03096E
BE26AFEC
3D135D9D
3E10D510
BDD23342
BD3EB730
BEA554C8
3EEBE403
BE0D1D16
3E520730
BEECE73A
BE38C01B
3EAA9679
BEDB2FC4
3EE480EB
BDE0C03B
3C54C25A
3E06F050
3E11A433
3D3CFF72
BCCAB7C4
3E2BD62B
3E93780E
BD733600
BEBE9800
BF095E4C
3C398674
BE1EB55E
3C84F441
3E8440C2
3C320CC3
3AEEEF0C
3ED68FBE
3F01ECDF
3ECFCD0F
3EBF474A
3D055EDF
BE23A62C
3E352671
BDF28A42
3EA486A5
3E2D91DA
BE98C30C
BDED8C82
BEA0ABE9
BE8BB052
3D0EF7B8
3E141545
3E4581D3
BAF119B3
BEE64C54
3E9BA765
BDFA4566
BDEC93C3
BCD6F418
BD94D3E9
BD4C133C
BE51B267
3E06BA10
BD61325A
BDB4888C
BD0744D8
3E779CEA
BCDFDE6D
3E23347A
3CB0090D
3DEB05C4
3E43219C
3D633679
3E195282
3E000835
3D6D493F
3DB3203F
BE37E8FE
BCFC1A02
3CCB94FF
BCE3FD9B
BD6219F6
3E5716DF
BE0F4CFB
3D50CEFD
3D0BF1D6
BD8DA44C
BDE56941
3D0736CB
3E23D555
3EB0FA8A
BE90D6B7
3DD7AE33
BCBB483B
3EB85E42
BDF009C4
3E28CC44
3D391194
BDC8BFB7
3E9C5E25
BDDB6C9D
3E44E044
3E71FF75
BD48B4CD
BDE78343
BEA1269F
3EC9E4CF
3E731ABB
3E4A5EC7
3DC80C5E
BE82242F
BE85ACA6
BD97C4DF
BE060A52
3D081EB8
BCC6E77B
3DF4101A
BD63B227
BE494F31
3DD279B9
BD216E1A
3CEBA459
BE084D1E
3E8726E0
3DF41D3A
3E6F2893
BE50819C
BD8B35FB
BD9205DA
3BDCB994
BEA179EF
BE46567F
BE4650C3
3C95547B
3E9C1061
BD9C724F
3E116AD6
3D247746
3ED640ED
BCA41D2B
3DF28A4A
BEA23ECD
BE42662B
3D1E1234
3DD44F55
3E64BFFC
3D28AC03
3C947E32
BE5EF837
BE46E126
BE6403BC
BE0AEBA7
BE35546A
BC58935F
3CB52D94
BD8442D0
3E1D1C7B
3D80979A
3DDA6495
BD2CD315
3E91E1D3
BDB6454B
3E0ACDD1
3E946E9F
BDC316B4
BEAE8192
BDC87D78
3D55FE7C
3E128097
3B47815E
BE3AB08B
BC27A2D1
BD177B16
BB9C141D
3DC78BE7
3E412DA2
3EDCED72
BD2B4DAC
BC98A553
3EA5F65B
BEB4A8DC
3A5E174D
3E5F86BB
3D23F77C
BE7BD633
3E063E30
BE15F784
3D90DAE7
3E842DF5
3E70C1DB
BEA12DF2
3D1BADA3
BEBDC3F7
3DD22D1C
3E537A83
BC0FC20A
BD1B9804
3E9A322C
3E6CAB9B
3D5F80E2
3E019756
BDB837E9
3EFE7C3B
3E8F70FB
3EA2A26E
BD7DAA9B
BC610569
3D796339
BE9A19DB
BE88734A
3DBB0438
3E0C5ABE
BE20D7D4
BE027D0F
3DFD9425
BEBD3BF2
3D988241
3E19B366
BDBAB5A9
BE248F5C
3EAFD9C2
BB216F51
3EE08EB6
3DF44FB6
3EBC55F7
BE7BC5BF
3E13D20B
3E92FA1F
3CA5D09A
BCF0B87F
BDD01948
BE6D1DCF
BD72FE22
BDADECFC
3D9AE4C8
3E9C1851
3D682612
3E4F9DD4
BC5429E3
BE2D0F7D
3ED0D615
3D9A5DE3
3D896273
BE0EA0CA
BD9BF066
BD9DC1AB
3D9AF9A6
BDDBFFC3
3E156F4D
3B7A1280
BDDC078B
BDF00C4E
3C9F64E5
BE8A80FE
3D6B20DB
3E482874
3EA3C92E
3E4374D2
3E1BAAC2
3D71C5B3
3D838E36
BE2BF063
BE85BE1B
3D38CA24
BE0790D8
3D164AC8
BE6DECB2
BEB1A9AF
BE4F7D70
3D0E07E3
3E8B68C2
3EAC42D0
3E4D5140
3D9E102C
3D077087
3E7C1BF7
3C1989BF
3E0EB764
BDB581D1
3E9D9C33
BE8DCF5D
BE9F6D56
3E0DCFEA
3CB8DCC6
3C7EB01F
3E009000
BE76A07A
3E08B5C3
BF15654F
3D03B597
BE0A835E
BDE52923
3D5EA8AA
3DCB937F
BE28B29E
3D956D8B
3E22412F
3EAA0BCE
3D016901
BC19B137
BE9E8B7F
BE8C9BB1
3E06714A
3D9A9F07
BEC7957D
3BFD0D5C
3E634F5D
BEBF971A
3E9A1CDB
BD9DF590
BD1B5820
BEF5E53E
BD38E3A7
3DF0E545
BE555F29
BDE30EED
3D9CB6AF
BDC6BB1C
BE837095
BC80C994
3E46AF99
3E8CF27B
BE833B4D
3E1AA5FD
3E3E1D69
3E5CE858
3F25F410
BD96EAD0
BBB3EEC5
BEC424BC
3CFD1D4D
3DF90C4A
BBCDE1E0
BDDF351B
BEAAB1DE
3DB7FB0D
BDC652CD
BE13B336
3EA5FA0C
3E15444A
3E7A7504
3E95F366
3E9350D9
BF035A10
BDC70366
3E9F6A25
3E8FCD37
BE5EB4BD
3CC8D06E
BEB6F117
3BF77F7E
3D0C7BE7
BDBF3D3B
BE28A70A
3E018B18
3EBB57AD
3DC9D8F7
BE45C8CD
BB8D2B0C
3F15F6E4
BE40669E
BE908714
3DEE66A8
BD041E42
3E56D975
3E556A18
BDA94576
3E265E04
3E275F42
BE944F33
3EA49C62
BD4676ED
BE0D2FB4
3E291F08
BEA8F060
3D8BBA05
BE67E421
3D9AB882
3DACA0B6
3BE0C01F
3F0EA6EB
3EB7E792
BEB27311
BD2AF737
3C7985A8
3EDF8960
BEF3EA15
BCC576F2
BDCF867A
3E980C1C
3EE7A0C5
BF06E075
3C92855E
BEF83E93
3DDA0E6F
3DB3DE09
BE712E3F
3D56FFB4
BE1BB22B
BD94AC32
BD9959E3
BC8F9FD0
3D00740E
3EEEE6F7
3E266FAF
BE42ED72
3DF70FE7
BE9D620D
BE42E024
3E806099
BEA95EF1
BD64F560
BDF642C1
BE395893
BE8D4516
3BB54CBE
3C5EF421
BEA1EF84
3E597474
BDB246C7
3CB2EE34
BED43448
BE9B0DD6
3DAEDEDB
3DCB1ED5
BD9376EB
BEAC243B
BDAB33B0
BDB7B16E
3E05C28D
3DEEAA1A
3EA2A55C
3EEF83F5
3C1A15E1
3DA0EF2A
3E69A149
BE888D1C
3ED5F176
BD8D4A28
3DAF5FEF
BEBC91C6

